<UNK>
<PAD>
!
"
#
$
%
&
'
(
)
*
+
,
-
.
/
0
1
2
3
4
5
6
7
8
9
:
;
<
=
>
?
@
[
\
]
^
_
`
a
b
c
d
e
f
g
h
i
j
k
l
m
n
o
p
q
r
s
t
u
v
w
x
y
z
{
|
}
~
¡
¢
£
¤
¥
¦
§
¨
©
ª
«
¬
®
¯
°
±
²
³
´
µ
¶
·
¸
¹
º
»
¼
½
¾
¿
×
ß
æ
ð
÷
ø
ı
ł
œ
ƒ
ə
ɛ
ɪ
ʌ
ʒ
ʖ
ʹ
ˈ
ˋ
˚
˜
α
ε
ι
λ
ν
ξ
ο
σ
τ
ω
а
б
в
г
д
е
ж
з
и
к
л
м
н
о
п
р
с
т
у
ф
х
ц
ч
ш
щ
ъ
ы
ь
э
ю
я
є
і
҉
،
ا
ب
ت
ج
ح
خ
د
ر
ز
س
ش
ص
ض
ط
ظ
ع
غ
ف
ق
ل
م
ن
ه
و
ي
پ
ک
گ
ی
۞
১
ಠ
ก
จ
น
บ
ม
ย
ล
ว
ห
า
เ
ไ
๑
ຈ
༼
༽
ᄀ
ᄁ
ᄂ
ᄃ
ᄄ
ᄅ
ᄆ
ᄇ
ᄈ
ᄉ
ᄊ
ᄋ
ᄌ
ᄍ
ᄎ
ᄏ
ᄐ
ᄑ
ᄒ
ᅡ
ᅢ
ᅥ
ᅦ
ᅧ
ᅩ
ᅪ
ᅬ
ᅮ
ᅯ
ᅱ
ᅲ
ᅳ
ᅴ
ᅵ
ᆨ
ᆫ
ᆭ
ᆯ
ᆷ
ᆹ
ᆺ
ᆻ
ᆼ
ᆽ
ᇀ
ᇂ
‒
–
—
―
‘
’
“
”
„
†
•
…
′
″
›
※
‼
‿
₪
€
℅
™
⅓
⅔
⅗
⅘
↑
→
↓
↨
−
√
∞
∩
≖
≡
≥
⌐
─
━
┳
┻
╜
╭
╮
╯
╰
╱
╲
╹
■
□
▪
▲
►
▽
◄
○
●
◕
◘
◡
★
☆
☐
☑
☜
☞
☠
☣
☹
☺
☻
☼
♡
♥
♪
♬
⚆
⚡
⚽
✌
✓
✔
✘
✦
✨
✩
✫
❌
❣
❤
➡
⬇
⭐
、
。
々
〈
あ
い
う
え
お
か
き
く
け
こ
さ
し
す
せ
そ
た
ち
っ
つ
て
と
な
に
の
は
へ
ま
め
も
ゃ
や
よ
ら
り
る
れ
ろ
わ
を
ん
ゝ
ア
ィ
イ
ウ
ェ
ォ
オ
カ
ク
ケ
コ
サ
シ
ス
チ
ッ
ツ
テ
ト
ナ
ノ
ハ
ヒ
フ
ヘ
ホ
マ
ミ
ム
メ
ヤ
ョ
ラ
ル
レ
ロ
ワ
ン
・
ー
ヽ
一
三
上
下
不
与
且
世
东
个
中
为
主
丽
么
之
也
买
乱
亂
了
争
事
二
于
云
些
人
什
仅
他
代
令
以
们
会
伝
传
估
似
低
体
何
余
作
你
使
來
例
便
修
們
倒
候
做
停
傑
傻
像
償
充
先
克
入
全
公
关
兴
其
典
兽
内
再
冰
冲
准
凶
出
击
分
切
划
则
创
利
到
制
刺
前
力
功
加
动
勧
区
升
半
华
卓
单
印
即
却
历
厌
原
去
又
及
古
叫
可
台
史
右
各
合
同
后
向
吝
否
吧
周
和
品
哦
啊
啬
喜
嗎
因
困
图
在
地
场
圾
坨
垃
堡
堪
場
士
変
复
外
多
够
大
太
失
奇
奥
女
好
如
妈
存
学
安
家
容
寶
对
封
小
少
就
尼
屎
屏
属
工
差
已
師
帮
幕
平
并
广
広
度
座
建
异
式
引
弱
強
强
当
形
影
役
很
得
復
心
必
忍
志
忘
怎
思
总
恢
恶
悪
惡
想
意
感
愿
戏
成
我
或
战
戦
戲
戴
所
扉
手
才
打
技
把
择
拳
拿
指
挺
换
据
掉
接
控
提
損
撃
操
擺
收
改
放
故
效
救
敢
散
数
整
敵
新
方
无
日
时
易
是
時
普
暴
更
曾
最
有
望
本
机
来
极
架
某
标
档
様
樣
機
欢
款
止
正
此
死
残
殴
殺
毁
比
汇
没
治
法
洪
活
浪
浸
混
添
渣
游
湧
激
点
烂
烦
然
熊
爆
爛
爱
爷
片
版
牌
牛
物
狗
狼
猪
獲
王
玩
现
理
生
用
由
男
界
異
瘾
発
的
盯
直
看
真
着
瞄
短
破
碉
碧
神
秘
称
程
空
立
竟
等
策
简
算
类
紛
素
結
經
維
編
縄
繰
级
纯
线
组
经
给
继
续
缺
网
義
習
翻
老
考
而
耐
聊
肌
育
能
腐
自
至
舞
良
花
苏
英
虫
血
行
術
补
被
補
複
西
要
見
観
视
觉
角
解
言
該
認
語
論
識
變
讓
让
议
许
评
词
译
语
说
谓
谢
象
貴
賣
購
货
质
购
费
走
越
趣
足
路
車
較
车
辆
辣
边
过
近
返
还
这
迫
退
送
选
這
通
造
逼
遇
遊
過
違
還
那
部
都
酸
釈
里
重
量
金
銛
錢
钱
铁
锁
错
键
长
開
間
闘
门
间
阀
难
集
雑
雞
難
雪
霸
面
頂
頼
预
飛
食
騙
驗
高
魔
鹰
麻
麼
黑
鼠
︵
！
（
）
，
．
：
＝
？
＾
ｉ
ｗ
｡
･
ﾉ
ﾞ
￼
##e
##g
##a
##s
##r
##i
##d
##v
##n
##c
##t
##k
##l
##o
##p
##y
##´
##u
##b
##h
##m
##д
##и
##н
##а
##к
##о
##в
##я
##q
##w
##f
##5
##0
##9
##z
##x
##ж
##1
##4
##3
##6
##2
##7
##ı
##j
##с
##з
##т
##ь
##ч
##8
##ᅢ
##ᄆ
##ᅵ
##ᆻ
##ᄀ
##ᆫ
##ᄒ
##ᅡ
##ᄃ
##е
##р
##ш
##ы
##м
##ø
##ц
##し
##た
##г
##©
##®
##σ
##щ
##€
##£
##у
##л
##さ
##は
##そ
##の
##よ
##う
##に
##れ
##を
##ф
##э
##ю
##б
##⭐
##ا
##ز
##ی
##س
##ن
##п
##™
##¨
##ß
##ᄋ
##ᅩ
##♥
##❤
##★
##і
##て
##ᇂ
##ᅳ
##ᆯ
##→
##オ
##ー
##フ
##ン
##ワ
##ル
##ト
##ケ
##ム
##い
##ク
##ラ
##ィ
##ッ
##こ
##ら
##µ
##コ
##°
##±
##х
##¼
##¹
##ん
##◕
##◡
##ᅱ
##λ
##ᄌ
##²
##▽
##˚
##━
##┻
##イ
##レ
##ヘ
##½
##º
##☆
##カ
##¢
##³
##ᆼ
##あ
##ﾞ
##¯
##ᆭ
##ᄂ
##د
##ه
##¸
##ᆨ
##ᄏ
##ᅥ
##ᄐ
##ط
##ف
##ᅦ
##ᄎ
##□
##ظ
##ر
##ᅧ
##な
##す
##る
##と
##っ
##も
##ᄇ
##ل
##م
##و
##ت
##つ
##ミ
##シ
##ョ
##ł
##ª
##か
##✔
##ب
##¥
##¬
##り
##ま
##せ
##×
##¤
##テ
##マ
##ス
##め
##ð
##ک
##گ
##ش
##ᄅ
##ξ
##ᅪ
##ᄉ
##ᄄ
##ᅴ
##æ
##¾
##ق
##ع
##ح
##ᅮ
##ᅲ
##け
##ض
##ຈ
##✌
##҉
##ᆺ
##や
##チ
##┳
##ᄑ
##ォ
##き
##╜
##ص
##خ
##ア
##ˋ
##ろ
##ᆷ
##ᄁ
##■
##⚡
##ᄈ
##ハ
##✓
##˜
##ウ
##ｗ
##＾
##ɛ
##ʌ
##ɪ
##ə
##￼
##ᅯ
##¦
##メ
##ъ
##ロ
##ᄍ
##ᇀ
##ᅬ
##サ
##ヒ
##ي
##➡
##℅
##œ
##∩
##╮
##ว
##ย
##น
##ห
##ม
##า
##ก
##ゃ
##お
##♪
##ェ
##わ
##ᆹ
##ホ
##ヤ
##ˈ
##✫
##ʒ
##☠
##╹
##ล
##ไ
##จ
##บ
##♡
##ᆽ
th
the
##in
##er
##me
##ou
##nd
##re
##ing
##at
##on
##es
##ame
and
##or
##ll
to
game
##is
##it
##en
it
is
##ed
##an
of
##ar
##as
you
##ay
in
##ic
##le
##ve
##ut
##ot
##st
be
re
this
##ly
on
st
##lay
wh
##al
##ac
that
##om
##ion
for
##ver
##all
so
##ow
##et
ha
##ter
but
##ith
##ld
play
##se
mo
##gh
are
with
##ke
##ec
an
##ad
not
##th
##oo
##id
as
##ch
li
##ill
##ro
##un
##ap
##ally
ch
##ent
have
##ust
##est
ex
##ee
ne
was
##ce
##ers
##nt
fr
can
com
sh
##ir
like
do
all
or
##ul
some
al
en
at
##am
##ble
##ould
con
ma
just
we
if
##ght
##ime
su
##ive
wor
##reat
##op
there
##ory
they
##ig
me
de
ever
##ie
##ant
##ood
##ge
##il
##ect
get
your
##ack
##ere
more
##out
##im
gr
one
story
my
tr
ab
games
##play
good
##ct
time
le
from
##if
##ough
##ies
##ven
##ain
##em
lo
bu
##ard
up
##ery
exp
##one
un
great
no
has
##ight
##ess
##ics
out
very
##ation
sp
##ur
##ast
##ment
fun
really
##so
mu
will
po
co
##art
pro
##ate
comp
any
##ound
am
go
what
##ss
##ind
pre
every
##ore
char
over
##king
##ich
##and
even
##vel
##au
##ue
bec
##our
##ine
only
its
he
than
##ult
##eel
##ort
##ous
##acter
character
which
about
ad
qu
don
act
feel
##aph
im
##iv
##pp
graph
how
much
##thing
sc
10
ar
##int
##ite
##ity
##ice
bet
oth
cont
fe
new
##ist
when
##ure
##ause
##oy
man
by
best
int
would
##able
pl
##are
see
##act
##ks
##ions
graphics
##ong
fir
gameplay
because
##ag
loo
other
cl
thing
first
op
se
most
well
##her
cr
##iff
##ide
too
who
##ear
##eri
##mo
diff
##us
also
##um
##de
does
them
##ass
played
way
##tle
##ade
pe
ve
still
##ign
better
us
af
bl
##ire
##ting
des
want
lot
peop
did
playing
had
been
people
##ish
##own
##ence
bad
##ab
aw
make
thr
sim
##ri
##ck
##ome
##az
##ile
level
##les
ta
imp
te
then
into
world
end
##vie
many
dis
after
##kes
could
now
##ons
off
ag
comb
ser
say
inter
add
##joy
hour
enjoy
##iz
##ick
##ans
##fect
##iss
per
same
characters
kn
thin
##pt
##ps
##lo
##sel
##view
sy
pr
##te
buy
##ial
##av
mult
##age
##ase
review
their
miss
lit
multi
##ull
back
br
##ace
##ach
real
were
##ually
while
experi
##ious
through
year
##ty
##ose
##oot
down
where
hours
##ls
player
part
##stem
system
amaz
##amp
should
##atch
gen
made
think
##sp
contro
comple
##ms
need
being
##hing
##nder
differ
combat
amazing
point
##wn
fin
hard
##qu
##igh
bat
bo
give
sa
love
enem
##ech
##player
dr
##ated
##ise
##line
eas
never
few
far
##ments
inc
rec
str
sk
##ail
again
##ays
experience
little
##ree
##os
things
pret
start
##self
know
long
series
sl
tw
war
mode
ro
different
pretty
may
fl
got
##ip
find
multiplayer
##ating
def
res
##ning
dec
weap
##ved
try
##ance
##ari
simp
shoot
##other
##ft
min
worth
##ful
##ving
bit
20
ac
high
##ever
sound
bas
sin
something
##ual
these
kill
though
map
##ations
look
##gs
##eep
run
##ought
##less
interest
##oring
rep
##po
##ild
makes
big
##ash
stu
##ff
around
pers
come
everything
fight
##igin
##ress
nothing
since
gam
set
doesn
##di
##orm
ll
origin
design
mod
why
##ix
##fore
att
creat
inst
actually
##end
##ol
here
gu
##velop
however
times
overall
##ount
those
wr
##ward
going
##ark
old
##vent
##per
complete
ste
develop
rele
use
fan
ter
##ical
perfect
##xt
players
before
quest
sing
camp
take
chan
##ves
##bo
feels
person
proble
##gr
##tain
mech
##itch
expect
##ak
right
single
##be
##oney
##ute
money
isn
enough
##que
under
sur
##point
own
##icult
##oth
hor
ps
nice
difficult
##ced
exce
ob
boring
lack
such
##vious
##ens
let
hal
app
main
another
interesting
##yp
##pg
##ond
class
last
put
##itive
mechan
original
##urn
didn
enemies
##aw
iss
fact
sw
##ition
##aster
##ically
campa
##esome
##allen
##ably
##ially
campaign
disap
expl
awesome
quite
work
each
years
online
tit
##ways
##lt
without
ext
hu
weapons
##ues
##ature
##get
mus
challen
short
wa
battle
cons
##ary
sm
impro
##mend
two
sec
##iend
##ool
##rible
##oice
mon
vers
full
gener
##ative
pu
done
defin
fant
##li
##aut
content
disappoint
controls
jo
##ason
##ry
##most
hop
recom
team
##ssi
fo
action
once
opt
##ense
friend
always
recommend
music
em
keep
easy
open
##ber
score
almost
##ra
pc
must
call
sty
beaut
##ys
rpg
##og
##sol
gl
##lc
car
side
gun
##ces
##fe
boss
uni
sol
##here
absol
hand
happ
##arly
##ict
anything
missions
wait
giv
sure
##ower
##ath
##ead
fall
beautif
absolute
##ked
having
##ily
getting
eng
looking
##form
bugs
rem
kind
##ady
incre
##ows
vis
mechanics
next
acc
turn
##ten
free
##ging
feature
el
yet
##its
less
prob
##we
looks
build
##pect
det
##ished
skill
ass
##time
##ffect
definite
comm
version
##zz
##ors
esp
least
fav
effect
##vers
probably
second
##ather
supp
huge
##ecially
making
levels
reviews
life
style
##iec
##ave
##gy
cut
dlc
beautiful
ent
ann
##ied
her
ho
reason
found
##ord
previous
definitely
super
hel
##ility
simply
fps
art
line
##ately
issues
##ings
spec
##etitive
especially
pay
puzz
##astic
away
##stand
##ction
##ple
typ
##air
whole
##ities
stand
unf
ai
seems
##ider
thought
both
fran
voice
cust
unt
scre
cer
day
custom
tell
maps
gets
won
exc
met
vide
care
instead
cod
ru
vari
master
dep
certain
fre
anim
##ased
used
##ready
##ither
fantastic
fix
##ud
bel
said
already
might
cool
ok
##sc
spe
top
completely
everyone
mass
problem
##ken
until
##du
ele
ide
##ts
item
absolutely
move
cle
poor
##box
##unch
unique
maybe
hope
reg
compl
fans
##ying
##ention
his
release
##ustr
##ality
##ater
##mit
yes
mean
##ia
felt
##ween
seen
incredi
scen
able
half
##reme
sometime
between
##ii
worst
ep
ind
##ading
ref
##omb
gaming
based
et
trying
annoy
conso
hit
become
quests
hon
##mon
##ieve
##iece
amount
extreme
##aking
frustr
tot
sometimes
##arn
solid
enemy
stop
ph
friends
##ield
val
##00
terrible
franch
either
etc
plot
price
coll
difficulty
##istic
quick
repetitive
##bly
small
cur
dark
##ates
excell
##cks
##ger
##alth
pur
cou
port
##cc
##though
fast
mind
##ared
av
simple
rather
bi
##ges
attack
understand
inf
cap
beg
anyone
help
excellent
##ds
##tr
although
ev
title
##pr
favor
inv
##iting
dead
rac
##atter
itself
pick
##ged
honest
flaw
bal
tal
else
shooter
##gress
##erious
franchise
change
seem
tru
dest
sou
201
ea
##mor
slow
doing
env
detail
takes
star
enjoyed
##ssible
##icul
setting
##ump
points
##ne
che
##ject
decent
extremely
stuff
match
problems
enjoyable
fighting
entire
dire
past
complain
fallout
dam
video
##ock
##uring
##lling
plat
opin
##ta
##sh
gi
loved
##ern
ple
##ted
bre
aren
bro
##dy
##antly
ret
dial
features
beat
##ario
visual
serious
ending
di
aspect
improve
incl
dro
progress
place
power
developers
##ize
envir
wo
collect
ke
enter
atmo
low
environ
##ake
rel
hum
acting
replay
control
dont
compan
med
atmosp
truly
upgr
##ully
annoying
deser
##ices
red
##ilar
yourself
gear
##land
bought
final
begin
##der
opinion
sense
##owing
unlo
##ling
requ
poke
giving
##ush
##ier
ins
plan
weapon
dialog
pol
##cept
lar
ran
##sent
true
rest
spend
strate
rid
##agon
city
items
console
##ization
watch
wrong
crit
due
easily
wanted
la
fail
60
she
pass
comes
##ired
sat
consider
neg
quality
wonder
advent
##ised
##ines
##ific
##track
list
imm
##amer
often
wal
##ety
##ortun
genre
##ures
mission
feeling
pokemon
##gest
puzzles
sad
myself
mario
idea
win
surpr
sub
event
batt
save
haven
except
zomb
son
left
cor
##ets
patch
const
##man
tech
using
##izz
##isf
##oc
maj
##umb
halo
favorite
ed
xbox
##ards
reward
surv
##ph
commun
worse
hell
cour
##ional
atmosphere
##led
fair
rand
##ored
happen
cre
limit
##ird
##utes
glitch
butt
##ror
##awn
job
wasn
others
##ters
upd
released
someone
random
pack
shot
days
disc
finish
major
##iso
##anced
##med
##wh
liked
##ined
##ness
addition
##no
hate
soundtrack
basically
cann
form
him
##ross
blizz
##ren
special
during
##pid
variety
##ides
grind
elements
crap
took
jump
dev
30
disappointed
light
challenging
screen
stupid
bug
##fully
battles
matter
beh
lots
examp
die
switch
came
##oices
platform
frustrating
##als
satisf
##ages
contin
100
believe
desp
battlef
hero
finally
exact
deep
##ru
sky
modes
challenge
pot
storyline
head
support
unlock
impress
##ution
div
guns
dut
classic
##ny
adventure
given
##ecess
engine
modern
running
masterp
produ
choo
options
minutes
launch
immers
loc
##cus
compared
month
cop
##mber
duty
similar
foll
gives
blizzard
sever
cannot
sn
entertain
space
##aid
example
along
opp
purch
##el
god
loot
15
sit
adv
works
course
mw
horrible
##den
shooting
smo
##gether
interact
black
present
buying
fut
##ision
##ences
despite
seque
souls
death
against
includ
gave
cra
##arr
##ival
##oun
prom
masterpiece
show
##eck
##com
mention
conf
strong
stealth
learn
monst
##nect
##ming
order
fire
value
close
type
dun
wish
improved
expans
##ouse
##iving
hold
oh
mark
pos
reme
tact
##ilities
later
col
added
mess
##ives
focus
ps4
highly
mmo
object
visuals
import
community
##ah
enc
wow
mic
honestly
num
three
##ising
explore
offer
deli
areas
obvious
mix
##ins
##ale
crash
together
##ided
negative
text
unfortun
mag
fine
rate
started
rating
broken
##aced
##way
##ential
##ized
means
name
epic
aut
load
##ky
hist
read
norm
ways
needs
camer
gamers
depth
##eld
choices
non
##rent
##where
ones
coming
choose
prov
incredible
##ats
animations
skills
strategy
##cing
moments
battlefield
track
##like
sequel
cry
dialogue
couple
gta
tre
trans
##osed
##illi
lost
boo
##ner
dunge
men
waste
remember
realistic
mostly
lag
ability
spent
par
##ades
##pl
##ots
rock
aver
forward
camera
ult
##ists
##day
##raft
parts
large
pop
ps3
wee
##lls
require
weak
##aps
possible
liter
age
##verse
issue
dist
##ipp
##ars
hun
future
##aa
base
wii
saying
steam
goes
##ron
##uck
area
##intend
max
average
brilli
nintend
##ains
pred
create
medi
behind
##scen
##bl
nintendo
flaws
bosses
##ci
bring
##iny
dou
tried
hack
awful
several
finished
##ret
titles
kid
cars
slight
current
massive
button
unfortunately
wall
quickly
seriously
cant
movie
##aging
longer
racing
cutscen
sonic
shame
total
conc
face
##ism
##ular
##ang
##aces
smooth
##pc
evil
couldn
path
cas
##ault
incredibly
linear
au
plays
addict
taking
##oid
please
plus
##ho
unless
actual
200
glitches
##hic
literally
biggest
connect
arc
##ib
exactly
night
npc
##azy
##iculous
rev
tra
##ane
live
designed
company
horror
50
building
mar
##ouch
diab
eff
heart
fam
user
totally
##ited
##60
##mb
check
squ
went
##ident
sounds
beginning
diablo
##wor
environment
near
development
count
phys
ye
ali
gone
deal
limited
activ
gamer
dragon
sch
choice
hyp
expected
potential
cover
gre
occ
speed
scenes
arm
fights
##atic
guys
guess
sort
cost
funny
zeld
fill
ridiculous
##lus
intro
##ible
assass
minor
##asy
##lee
##enty
techn
##oware
controll
##gn
soon
##ability
certainly
zelda
chance
pain
heav
perform
history
bioware
##arely
survival
brilliant
##rim
land
gar
changes
##ently
ach
##ories
stun
mid
##side
remo
##gth
abilities
##nov
important
zombies
damage
cheap
waiting
alone
##ator
concept
##over
number
writing
disappointing
explor
innov
##empt
blood
##na
personally
equ
servers
customization
expansion
fantasy
option
mot
general
##aves
emot
ign
skyrim
bored
moment
fif
satisfying
lead
throughout
##rit
##da
bar
##ped
##wards
effects
##ero
fixed
vehic
multiple
forget
##vp
##ream
reach
##ax
3d
wouldn
our
##ug
fur
early
created
##olution
touch
box
killing
key
effort
extra
##py
spo
##asing
avail
memor
driving
narr
pvp
##load
destro
within
sect
deserves
plenty
appro
imag
bf
deliver
listen
##od
moves
resp
higher
##ank
months
##und
missing
##body
none
usually
##thes
install
called
core
da
break
clear
fresh
events
room
##ball
post
ago
##aged
available
wars
##iew
guy
##cy
ultim
puzzle
encoun
view
sucks
piece
ground
terms
stay
##fer
exist
##wise
normal
succ
tro
third
##red
writ
fly
allow
repe
episo
nearly
frame
stra
step
##more
bethes
exploration
simul
child
blast
unlike
anyway
constantly
runs
particul
impo
witch
##augh
##ther
##ove
tons
needed
bethesda
rush
becomes
return
sold
success
##selves
prot
##ient
##ell
thinking
ops
thats
ball
cutscenes
##what
market
zero
##mm
home
##gend
adds
garb
12
somewhat
arcade
##bs
balance
shad
dumb
fig
warf
addictive
legend
garbage
##ones
wonderful
aim
thank
attention
supposed
introdu
medioc
ear
impossible
bull
mad
possi
##ination
cast
##ude
above
cause
fore
suck
spoil
party
##yn
physics
##ract
follow
ey
avoid
##ping
air
straight
greatest
upgrade
##dio
##ips
bey
fifa
##craft
luck
direction
happy
beyond
environments
proper
damn
grou
case
coo
40
generation
slightly
okay
ut
##arted
purchase
doub
access
stick
360
##aring
decided
result
pure
sign
changed
product
pros
otherwise
copy
settings
entertaining
ub
##iced
basic
fairly
breat
##core
aspects
##ript
island
engaging
leave
##icking
complex
capt
##icks
stunning
pull
##order
further
walk
##pgs
##lf
##actions
unre
press
comput
today
shooters
unch
ap
invol
appear
themselves
infin
ted
mediocre
beta
talk
stuck
##ink
disappointment
thanks
graphic
mor
taken
walking
id
leg
exciting
##bb
stri
paid
stories
gold
offers
controller
##ises
explo
##onent
standard
drop
##aving
clearly
forced
suff
meaning
armor
optim
##ange
##ney
bother
alot
##ham
##ether
##ief
##ground
##ian
##face
##ware
killed
monsters
tar
##fting
human
considering
##seless
improvement
sele
attempt
mechanic
achieve
shows
ess
##ensive
wild
##enced
##eeps
ant
##dd
warfare
lose
perfectly
server
spawn
personal
exec
doll
including
##99
dull
anymore
##tern
##osh
critic
movement
seeing
date
manage
test
##up
health
witcher
universe
ten
tur
breath
##thr
log
ra
balanced
across
paced
performance
expecting
foot
##aks
units
##arch
prefer
loading
lacks
##use
##aly
casual
##ape
appe
classes
assassin
crafting
ton
lacking
aside
glad
tedious
doom
##orge
var
uncharted
kinda
civ
keeps
sor
chap
race
yeah
continue
heard
types
unin
creed
impressive
trash
bland
grab
len
desc
notice
useless
##isoft
bur
coun
lets
sword
ubisoft
doubt
##haps
polished
destroy
saw
direct
imme
positive
perhaps
##sing
talking
heroes
jour
flu
##ont
working
developer
spl
hype
target
obviously
hardcore
four
cash
er
whate
upon
fully
micro
laugh
resident
mods
whatever
depend
bes
clim
easier
mist
poorly
joke
allows
magic
house
##ote
theme
attacks
king
prof
confus
starts
hid
written
progression
figure
destiny
whether
computer
challenges
favour
invest
buggy
textures
scores
##unky
##icated
remind
occas
sadly
places
brings
dri
ff
ship
weird
tactical
ps2
rewarding
mini
generic
border
drive
creative
##ned
wind
gorge
lock
zombie
travel
dyn
throw
length
models
forg
regard
exploring
expectations
situ
gorgeous
##iev
##lement
various
##isions
mach
cau
towards
##lands
kept
technical
##light
##wer
boy
happened
immersive
spot
force
likely
state
moving
approach
heavy
episode
sil
vi
##reci
stre
town
##ances
compet
upgrades
craft
happens
turned
account
##back
ii
mil
ds
playable
demo
mw2
##inem
##right
##ison
earn
admit
hoo
batman
discover
dungeons
##gle
lore
counter
90
##rib
update
##ining
school
finding
narrative
##iness
menu
clunky
cinem
##ases
water
appreci
simpl
snip
##ashing
fit
humor
told
##arent
group
encounter
tut
note
push
gon
barely
powerful
click
##acing
vehicles
animation
##orial
lear
##ga
##asons
publ
harder
empt
crazy
sorry
updates
##aling
##for
pract
round
critics
##irt
implement
draw
##ili
biosh
bot
pat
details
bioshock
tutorial
vill
drops
rpgs
experienced
sand
##stal
##aining
##star
figh
ideas
##ses
##ecessary
sale
devs
looked
unplay
invent
dungeon
##through
fil
memorable
decisions
apart
reading
download
##ew
##ula
gonna
##dle
predecess
season
ark
monster
##etic
week
nor
surprising
##work
auto
##boy
starting
lower
hands
##unk
breaking
intense
##itions
compare
##ube
telling
learning
insane
wise
unplayable
cross
resour
##rated
##host
ghost
difference
##to
kick
besides
##bal
##ified
ah
##owers
seconds
kids
playst
bus
empty
hund
micr
turns
compar
sell
melee
init
##con
##board
ammo
metro
endless
##io
seemed
card
superb
russi
tracks
filled
song
remake
respect
command
worlds
equip
bunch
crashes
##entially
scene
watching
wants
surprised
range
##oon
consoles
lay
front
improvements
myst
intr
har
journey
completed
write
hear
##how
bon
mer
terr
ir
##ants
interested
locations
reviewers
word
detailed
adding
metal
enjoying
vast
mouse
role
indust
pace
rece
dream
ruined
fluid
deserve
leveling
activision
cred
mob
joy
borderlands
##acy
rare
##yy
arr
rts
##ume
realize
##ieces
gal
rob
intern
catch
constant
outside
sug
shadow
##yc
##ilt
##lusion
generally
rent
dynam
gears
opponent
##uted
strateg
ups
sims
##ague
##bing
ban
matches
ble
tactics
obl
drag
hoping
squad
middle
rif
systems
strange
immersion
pointless
##ivity
formula
##rior
color
ui
requires
platforming
sport
bigger
excited
accom
##ained
entirely
words
edition
patches
##ex
##cess
dog
sequ
brought
regret
background
grand
favourite
reasons
freed
nostal
portal
suggest
interface
script
worked
##ler
alien
connection
varied
nostalg
3ds
##rect
grinding
scro
##ively
notch
freedom
meant
80
##otr
stages
vs
recommended
vit
arkham
races
##log
##br
possibly
older
known
utter
valve
conclusion
presentation
specific
agree
##ived
npcs
competitive
industry
fort
park
##action
2k
repl
powers
peri
##game
audio
amb
removed
kills
hur
bud
somehow
imagine
defe
ended
planet
complaint
dem
infinite
book
stats
raid
25
dollars
hidden
ignore
fault
playthrough
tough
hd
store
innovative
ask
##ering
says
mixed
##otrans
ends
##standing
##gu
##whel
hopefully
mat
##oint
solo
##cial
##ience
gir
mw3
road
shouldn
microtrans
##ze
developed
aaa
purp
missed
protagon
cards
##iliar
##ipe
expand
du
warcraft
minute
##bor
lazy
esc
affect
##res
cart
pun
element
impact
repeat
##by
managed
##ishing
2d
pen
##allow
trad
among
metac
creating
mill
sup
##icting
refund
cla
##aters
idi
rushed
became
knew
##ding
immedi
##fall
ded
pieces
minim
actions
worthy
bonus
##par
tas
question
apparent
diss
dropp
##ina
##ope
##vert
##ster
welc
outstanding
##ums
eventually
faster
search
pleas
##ung
mp
##ionally
metacrit
flo
recent
built
##ns
dig
clos
flying
lines
smash
pra
chapter
ver
indie
collection
##erior
dod
internet
##telling
confusing
inventory
##des
##uster
users
essentially
alive
##rd
bucks
gem
particularly
block
family
metacritic
simulator
plain
lol
##ene
wont
##ingly
versions
origins
mis
goal
remaster
typical
gt
playstation
##uct
ultimately
promised
bomb
currently
storytelling
##ipping
everywhere
revolution
fanboy
##hip
slash
self
defend
11
meet
rockstar
##iment
five
##uing
welcome
scr
nav
obliv
spect
putting
insp
twist
##lish
##ipped
scary
tomb
forever
ug
nu
emotional
section
trust
flat
walls
sections
99
brain
accept
eu
ww
##eter
interactive
##lu
correct
complaints
rewards
decision
3rd
ill
##omen
dying
accur
##akes
sandbox
sets
signific
appreciate
tired
##ament
common
weeks
late
jumping
band
below
graphical
##ker
equipment
##ng
skip
span
unreal
twice
##lier
buildings
##iers
paying
##eric
depending
failed
##elling
motion
familiar
tries
purpose
und
##oud
##za
period
eyes
trail
##80
19
oblivion
tv
##read
##ames
addicting
particular
mov
mentioned
net
resources
capture
inside
stage
hot
odd
singleplayer
##power
leaves
##arily
didnt
consist
advant
size
prem
jap
surprise
respons
tank
inde
scale
machine
##ik
##reds
provide
included
ko
roll
usual
tast
##ilog
rated
treat
##ribly
visually
diret
convers
vita
screw
16
function
ultimate
unn
spr
rich
compelling
movies
jud
##come
decide
sal
wer
jr
diretide
##atur
microtransactions
japan
fails
majority
hide
immediately
rad
likes
doesnt
select
summ
uses
football
##port
dan
hundreds
##por
mainly
##oming
framer
platformer
rout
screens
ugly
gotten
americ
required
##inished
properly
intrig
perks
tag
appeal
rip
picking
tight
##cer
curve
##ceed
ive
thrill
titan
##oughly
surprisingly
bullet
opportun
experiences
advert
fighter
##ued
##ify
##down
completing
entry
##gue
falls
protagonist
tor
comment
factor
comparison
enjoyment
tend
complaining
predict
ready
madden
greed
coop
sports
rain
reb
forces
tun
##illy
involved
tree
fell
swe
cities
ride
matchm
##ese
twe
useful
##ries
flash
##just
graphically
career
rarely
conv
project
exper
soft
hardly
##rets
endings
14
lame
pir
##ights
shallow
##ugg
hasn
changing
accompl
virt
smart
soul
ruin
##vice
##aded
capcom
##ruct
##ook
unfinished
shield
cent
##hood
ahead
13
realism
impressed
ans
polish
emp
cinematic
##iring
trilog
stat
wanting
apo
objects
suit
ram
repet
mount
dm
frequ
eye
combos
weren
giant
following
abs
boost
field
kart
##ecraft
sniper
wol
refres
##izing
##bel
##co
spending
materi
clich
autom
##iding
##apt
offline
popular
##aper
matchmaking
dynamic
sud
objective
onto
till
tan
focused
##ivid
refer
sum
##ife
predecessor
hy
provides
refreshing
trilogy
##ront
explos
##ievable
inform
friendly
dot
##otic
##balanced
minecraft
##ift
ris
outd
##row
objectives
galax
exclus
cir
framerate
picked
##whelming
cha
##ests
##atively
mistake
evol
##kward
frustration
sick
tem
carry
genu
bott
##rupt
##ites
installment
intell
sudden
##ribe
wan
implemented
fi
##lder
anywhere
blow
ur
prep
##fps
personality
edge
spectac
ner
##ium
unfair
charm
forgot
##tend
replayability
entertainment
rage
ast
eg
designs
genuine
##eth
knows
buttons
hits
share
thus
shop
body
hooked
solve
corner
##ables
nature
sne
attach
keyboard
hilar
brut
join
prim
local
fac
##oooo
ident
##11
##uth
nin
##mbers
iv
leaving
silly
mgs
strike
awkward
stands
include
##ba
brother
struct
metroid
prec
iii
bung
##logy
mas
isnt
shots
era
dice
uns
safe
dissap
stren
##ja
vehicle
budget
clever
legendary
wide
situation
sun
process
wasted
hill
tim
##cking
square
ships
encour
##ima
imo
##lessly
earth
nowhere
earlier
model
##rid
street
pacing
thor
yout
badly
crafted
wheel
hilarious
raider
reminds
##itor
army
sam
quit
whil
##gram
grow
teams
galaxy
nostalgia
##ously
gren
consum
handle
train
greatly
##gas
six
advantage
sour
trial
gain
hey
whilst
##round
driven
trip
##uitive
claim
excuse
selection
theres
##ands
detect
management
euro
##ancing
explain
cartoon
thrown
circ
##aming
speaking
lighting
bungie
##pe
##key
chore
##ma
##dom
vr
allowing
##ushing
##sequ
bf3
susp
planets
split
host
packs
demon
heavily
additional
helps
slowly
cal
send
iron
soldiers
##atives
fear
cree
defense
##old
strength
castle
noticed
##ital
tradition
spam
keeping
insult
died
possib
enh
##imm
trou
sens
spells
regular
##ocking
randomly
##gun
lat
##table
##ency
feed
surround
phen
describe
tour
oper
reality
collecting
bottom
recently
##powered
taste
profess
silent
necessary
checkpoint
audi
songs
trees
perspect
arch
menus
members
aliens
elder
horse
door
package
ce
purchased
studio
##gry
dedicated
##ered
survive
selling
crappy
individ
regardless
aiming
praise
numer
##aught
combined
loads
veter
delivers
thous
introduced
packed
tower
scrolls
slee
alright
knowing
unbalanced
tanks
dram
board
stopped
doz
novel
lu
link
crys
secret
respawn
##ste
##soft
##oman
unit
##ners
kingdom
everybody
executed
tiny
trade
redu
updated
64
nf
koj
meh
altern
##ha
##icate
locked
crysis
superior
holding
spider
white
##tale
od
information
empire
blue
polit
frank
dated
bt
dmc
apparently
numerous
1st
spir
twists
location
contr
expensive
##min
pathetic
##ante
18
prin
speak
tear
simulation
willing
offic
anime
suc
dota
spectacular
##ami
predictable
program
living
companions
hunting
table
##oof
truth
blur
troph
allowed
zone
##ents
intellig
##apped
refle
social
##ension
scenery
bene
##gust
##rs
standards
considered
beautifully
restart
position
medium
viol
kojima
gunplay
innovation
punch
creation
que
spin
cos
pes
sav
relatively
complet
fa
hated
situations
interaction
##van
##met
vict
natur
hyped
opening
elite
finishing
boxes
realized
##tf
somewhere
sequences
##etch
guild
obs
lives
anti
beating
phenomen
ninja
landsc
uninsp
gather
dissapoint
perspective
van
videog
shock
sweet
##some
bor
##used
row
utterly
techno
transactions
intend
cat
##resent
youtube
hunter
tack
service
xp
fal
indeed
separ
saving
vegas
combo
unfor
prevent
double
est
ge
##20
factions
japanese
increase
##rict
jrpg
paper
sent
piss
clone
assault
drm
unbel
league
advance
wolf
english
##ried
oppos
suffers
tells
knock
##the
trig
adjust
persona
secrets
##imin
forza
initial
##borne
resolution
##ication
relations
##ules
children
achievements
losing
frustrated
scare
##icip
lackl
stream
loving
##vant
rocks
psp
puts
tools
guard
ultra
via
##ager
announ
civil
##iest
blo
instantly
lie
intuitive
##ruction
intriguing
prior
ing
opportunity
dogs
creatures
business
ratings
advanced
minig
sony
brand
costs
distance
mur
cult
nightm
pad
bab
trick
manages
swing
overly
address
wre
incom
encounters
##esting
smaller
destroyed
marvel
complicated
combination
decade
normally
concern
answer
burn
whatso
unlocked
moon
shines
haters
lim
##dr
70
mem
wanna
##tered
phenomenal
cutscene
bros
hardware
represent
fem
thoroughly
whatsoever
individual
apoc
##pass
##ub
199
##ius
##cent
relax
strategic
nicely
danger
crow
nobody
charge
navig
disgust
render
horiz
optimization
defeat
gimm
escape
overrated
bullets
flow
san
overpowered
sheer
##eme
customize
patience
credits
memory
blind
diverse
remains
companies
hacking
##ibles
mmor
shotgun
hunt
software
succeed
sci
styles
chat
##ured
infinity
wtf
##usion
occasionally
nightmare
##bre
##isation
syn
climbing
larger
delivered
##´s
##earch
fat
##ifying
videos
traditional
apocaly
##go
mine
worry
aes
fetch
skins
research
error
flawless
champ
2nd
unc
aesth
knight
russian
helpful
dumbed
benef
ak
assassins
milit
unnecessary
outdated
production
holds
##mer
ruins
happening
##world
collectibles
fanboys
scripted
accomplish
audience
fits
chec
crew
argu
influ
flawed
turning
##umbers
memories
##hh
scheme
dime
campaigns
##esy
##lly
histor
dish
latest
angry
faction
brutal
becoming
gate
##vania
sex
suddenly
fro
##inct
##illa
fool
additions
nail
##amed
ger
dialogues
tele
handling
err
sho
releases
chr
arena
highest
2013
throwing
consequ
##aga
perfection
hang
oc
##uit
skin
##umps
downside
##ders
##atically
charming
dlcs
stars
dropped
optional
gripe
rifle
##tt
##pu
promise
climb
sight
actors
countless
opponents
colors
##gan
retro
clean
credit
##wers
aff
colour
genuinely
conqu
girl
overl
practice
##arded
devil
uninter
##atics
dawn
leads
mystery
flag
voices
exception
thankfully
##apes
lackluster
##antic
source
##ray
wit
##anted
continues
exclusive
failure
reve
ridiculously
mut
##roc
2016
##pad
##istent
hint
bright
builds
dodge
blowing
expansions
rogue
difficulties
den
showing
subst
blend
##off
surely
trigger
alph
pve
rom
asking
deeper
naught
whenever
##sed
irrit
pin
pict
cond
##ening
negatives
pix
##gb
##aked
accurate
occasional
responsive
creativity
texture
hitting
hearts
received
hurt
rail
sitting
depart
vo
balancing
lucky
distract
##cu
completion
dom
es
chapters
spirit
##uts
divers
##asure
forcing
neat
mistakes
activities
presented
motiv
solving
ward
standing
prop
craw
trouble
nons
##set
recyc
studi
psy
hopes
crack
##iven
forums
neither
deus
young
repeated
##hed
stronger
professional
military
fles
goty
##ogn
continu
instant
includes
optimized
frankly
##llow
##zone
##ptic
green
##onnect
stale
##ral
instance
busy
achievement
cliche
execution
lies
therefore
cases
alpha
cute
comments
scratch
##aff
significant
hair
platin
##dies
customers
lego
##yyyy
dislike
atmospher
minimal
releasing
bow
express
judge
naughty
##outs
##iles
criticism
cares
food
killer
roster
curren
unable
anyways
severe
false
telltale
hitman
uninteresting
sega
uninspired
##aries
code
fle
emph
encountered
spoilers
leader
cosmet
##agger
mature
rules
steal
ghosts
conte
magn
rome
##anding
battlefront
comparing
matters
bloodborne
weight
vol
bringing
record
lv
##watch
psych
boot
##pting
##ai
breaks
lic
waited
studios
cheesy
chose
million
reboot
maint
hardest
2012
earned
##ational
##fort
mir
##inter
cam
blown
highlight
suppose
freez
fixes
tasks
##aaaa
saga
amazingly
emphas
nfs
##taking
rank
restrict
##held
dele
successful
technically
faith
lab
thumb
adult
recogn
##itude
crime
appears
experiment
bots
necess
learned
facial
jack
intended
##rant
occur
tone
beauty
sucked
##forms
##ister
rig
beaten
##arios
shown
currency
glo
initially
platinum
cell
ash
naz
##ley
animals
winning
ages
creepy
##lines
##ators
##arks
sake
held
heal
##lished
spell
predecessors
##ata
handheld
deg
thousands
animal
shadows
ice
beast
meaningful
public
tier
##bit
flight
cen
mood
paths
pist
critical
mindless
marketing
##nse
vision
horizon
sain
disconnect
ske
teamm
wand
lara
training
film
mmorpg
colorful
freaking
scenario
pile
saved
disaster
17
simplistic
crowd
lord
react
report
patched
fol
##egr
mere
2011
noo
forgettable
##gles
##ieved
##64
excite
xcom
country
remove
immense
greater
outcome
sem
pil
protect
themes
scenarios
atmospheric
delay
bag
##asc
reload
chop
led
##nament
underrated
chaos
scope
breathtaking
##2p
threat
000
previously
surviv
convin
extend
attacking
##hy
nowad
companion
2015
results
aware
directly
replaced
placed
heck
american
ment
rough
terribly
questions
interactions
floor
books
soldier
acceptable
pan
impression
sneak
nowadays
bay
himself
titanfall
faces
feet
integr
loose
lin
attract
gamec
wondering
deter
structure
sac
effective
female
om
atroc
##ony
##tedly
revolutionary
goo
##ric
genius
originally
creators
bound
suffer
grip
invis
practically
##la
downgr
snow
##´t
thief
ener
##uu
unex
cd
overwhelming
destruction
caught
unrealistic
whats
conversations
ss
##uss
loss
24
auth
fund
zones
tournament
sides
crashing
natural
mega
component
ridd
cs
badass
horribly
##ibility
##aven
purchasing
stress
inspired
disgusting
metho
site
maxim
window
technology
##iet
cod4
##while
econ
improves
##urd
jokes
provided
police
gamecube
pres
qual
creates
meat
upgraded
promises
mmos
nba
2014
planes
##ledge
dollar
invested
windows
##outh
econom
bare
##yl
##ki
active
dropping
feelings
bothered
murder
lobb
emotions
merc
lad
tense
iter
rubb
amounts
seemingly
dimens
bum
remote
risk
dishon
trading
related
##imed
bits
villain
drawn
episodes
humans
default
gimmick
wes
mobile
veteran
fighters
2019
stell
troo
satisfied
kir
wood
stut
falling
##put
theft
##angu
##quis
listening
possibilities
saves
asked
importantly
##lies
##ription
gtx
##ateg
greedy
goals
##ids
follows
weather
monot
frequently
##sey
horde
gotta
accessible
resist
guar
tension
##iance
##icing
strugg
smoothly
##ior
racer
disp
excitement
comic
minus
emb
sess
1000
passing
categ
gamepad
overwatch
##iction
popul
noticeable
##kken
upset
infam
##ashed
evolution
trey
reflect
andro
starcraft
keys
feedback
root
##70
rely
dante
sales
absurd
##ert
unac
costume
anticip
##rend
##isher
posit
mk
offering
errors
eat
##acle
1080
steps
display
storm
cru
named
desper
obst
leading
connected
obtain
trolls
mort
junk
freak
unbelievable
contains
fash
##using
redee
sea
##iders
upgrading
rein
rooms
settle
bald
insanely
summary
minigames
anybody
mobs
unforg
sole
300
tekken
remastered
emotion
##uggle
explosions
brief
setup
emble
identical
invisible
##yle
deaths
slower
76
stellar
idiots
virtually
##arina
advice
laggy
rubbish
newcom
eq
##stop
talent
editor
jumps
numbers
ine
warrior
broke
imagination
closer
organ
loves
offered
fortun
forth
quir
helped
introduction
fashion
cand
hous
remain
task
##af
entries
unaccept
cy
##otyp
subject
trailer
rot
cinematics
##he
##tering
##pped
guit
paint
existent
pleasure
deb
strongly
appealing
reven
towns
station
bloody
opposite
waves
orient
tale
paste
competition
##icop
incons
tick
##anda
horrend
variation
##asty
rewarded
planning
cooper
saints
watched
distinct
lvl
energy
rocket
separate
500
surpass
largely
grew
kon
##pear
##ifically
helicop
official
##ob
##orter
fest
##anch
playability
movements
##raid
##kill
##mes
cpu
##lim
peace
glitchy
material
sidequ
gy
premise
positives
cyc
teamwork
holes
ocarina
pushing
modding
humour
treyarch
din
##iveness
tri
surface
##ey
western
tl
gig
microsoft
route
weakness
shut
grav
##ounding
elect
entertained
prepared
lights
successor
duke
warning
refor
infamous
terror
armour
##pri
##urning
util
unacceptable
afraid
russians
gore
##war
demons
steep
##emption
terrain
nv
tf
buff
corrid
vary
term
punish
45
dirt
owners
irritating
hoped
da2
mashing
regarding
sequence
references
##ring
gad
fake
##utions
hook
atrocious
baldur
artistic
hom
mouth
unlocking
cu
##c3
##pse
redemption
complexity
langu
unp
##aled
materials
2018
legends
##10
stable
fixing
##coming
icon
endgame
guitar
##breaking
doors
combine
payne
region
luckily
##city
improving
generated
childhood
##88
resol
retarded
message
customiz
satisfaction
dual
hat
significantly
75
accord
##match
##inary
##9999
attached
bs
heads
downs
fing
##rew
letting
wife
##lict
youre
cris
videogame
guide
##inations
del
media
##plete
seg
forest
diversity
wasteland
parad
hackers
villains
grenades
detract
department
chron
glor
gadget
hall
##beit
##val
##gg
explained
differently
immersed
spi
switching
me3
60fps
announced
albeit
news
recycled
notes
scam
golden
backwards
remark
subsc
reh
passed
reforged
prime
franchises
patter
##iii
baby
capable
##hammer
desire
warri
robot
farm
searching
##ops
adventures
spoiler
purely
semi
killzone
visit
annoyed
ffx
relationship
pixel
portion
##stall
nostalgic
consequences
aband
2017
captiv
##onge
engross
emblem
roy
showed
names
bill
btw
determ
faults
backst
calling
attempts
simplified
me2
teammates
##bling
warriors
chase
scared
riding
liber
##aker
limits
las
receive
##stein
christ
downright
behav
webs
versus
handful
##apping
explan
returning
balls
dread
##atory
adm
##retch
customer
penny
trophies
wasting
justify
necessarily
pal
newer
roam
landscape
granted
loy
believable
struggle
##ora
konami
##ened
stated
specifically
gow
sleep
lan
tho
tool
odys
comfort
engage
34
dies
harsh
traps
division
treasure
minimum
ca
150
##pan
moba
nonsense
hes
shar
revol
dozens
xen
incor
reasonable
n64
##ils
hundred
historical
fallen
coins
odyssey
35
fable
##kn
precise
f2p
ripped
pit
acqu
abandon
liking
platformers
##riend
confused
loyal
shep
fasc
rap
increasing
pump
ray
nope
ens
reput
gang
jet
controlling
lovely
rising
zo
##cs
cliff
pressing
civilization
##ams
conversation
automatically
asyl
pulled
alike
essential
blat
perk
##graph
awsome
throws
degree
apocalyptic
page
spots
morrow
##kend
##iling
guards
installments
##bow
destroying
relaxing
outf
disappear
htt
domin
asylum
nit
subtle
legacy
idiot
radio
##stre
wake
strategies
victory
jun
##fill
teach
owner
wolfen
##xe
##alog
groups
dip
kinds
south
crashed
addicted
thrilling
hearing
respon
ip
artwork
forgotten
moved
justice
reviewing
penal
triple
equally
morrowind
exceed
timing
incent
reached
horr
parkour
secondary
followed
robots
##men
choosing
cold
underwhelming
political
emphasis
angles
hiding
aggress
compete
iw
clan
former
begins
pet
braw
passion
weekend
shr
##uri
repair
premium
response
##base
shorter
##ury
##hl
##izes
loud
resource
checking
transl
sie
describ
ww2
nerf
##kers
##pond
lastly
refined
incomplete
shine
propag
##mal
grenade
dishonored
hats
pause
trailers
##bles
whoever
partner
advertised
wave
digital
teleport
##olog
farming
respond
crossing
mysterious
pirate
detection
legit
intelligent
violence
fleshed
blame
picture
tes
grid
champions
attrib
unity
desired
bugged
horrendous
fu
consists
quar
platforms
sprint
##hile
##iful
reduced
vib
unlocks
corpor
firef
pushed
teen
cit
cops
appropri
folks
golf
blows
vastly
dust
##encing
libr
intention
frequent
##nes
2010
concepts
checkpoints
questing
pleased
##ethe
##fia
manual
00
ry
castlevania
rise
##xic
knowledge
dangerous
differences
painful
sacr
mediev
verd
context
wolfenstein
designers
maximum
language
stretch
ranked
reputation
healing
rally
grap
extent
holy
depress
pistol
##gin
youn
awe
haw
copies
ri
simcity
accident
honor
dissapointed
awhile
animated
edit
##astically
colo
purs
##kt
firstly
deserved
fortress
rival
clue
cloth
assume
gravity
##irm
backtrack
appearance
streaml
disgr
trop
myth
developing
vanilla
ruining
auction
##ombat
dragons
quant
worthless
investig
kr
requirements
##66
dozen
##cle
coh
tweaks
sidequests
cave
##ups
mafia
amazed
sequels
cosmetic
bir
##edge
overh
europe
hind
customisation
machines
##ket
it´s
pitch
halfway
laughable
input
##arts
priced
bond
gadgets
##attered
caused
##owser
roots
##well
mates
playtime
strikes
mash
##ded
figured
glory
houses
newcomers
etern
theory
promising
portable
cring
expanded
pilot
younger
revel
##reen
meets
concerned
thumbs
stops
hl
inquis
firing
supporting
trend
shocking
adapt
blaz
##yr
2000
favorites
launched
causing
influence
##etheless
##uel
nonetheless
mortal
tire
west
creator
thoughts
propaganda
seat
priv
phot
elsewhere
cheat
##ton
helping
darkness
inex
overs
##0000
daily
layout
plag
targets
##full
understanding
mans
library
disney
underst
conflict
prepare
brotherhood
kicks
mi
generations
screwed
##ok
grade
los
pleasant
verdict
##acles
allies
medieval
nhl
effectively
spawning
tutorials
primary
estab
kot
##vit
equal
stam
torch
kombat
mother
##c2
hordes
ps1
repetition
motor
tricks
benefit
unexpect
##run
angle
thinks
tales
ful
gw
oriented
##gers
towers
bear
slugg
worthwhile
began
resistance
##itious
##sen
##inis
retail
contain
nuke
club
##icles
##unt
feat
deck
publisher
virtual
sluggish
suits
quake
revenge
##tes
havent
providing
joh
unexpected
##hips
slop
magical
commander
replace
##icient
resc
encourage
costumes
##pers
overpr
cro
rat
alt
driver
rendered
##ieves
unkn
camping
owned
spread
delight
##loading
gothic
childish
mask
culture
scan
routes
##ctions
severely
shift
tf2
classics
commit
streets
burnout
seam
##ox
hol
##ulate
buck
mountain
sooo
hole
dash
je
launcher
correctly
sites
enhance
scares
grit
realise
monoton
dare
lying
beats
lags
raids
han
blade
chances
physical
unim
kirby
##ana
specially
hadn
fascin
preque
solution
advertising
wrest
method
web
reminis
economy
rhy
hub
gh
##eeee
millions
navigate
aesthetic
rng
sym
shell
involve
shepard
disgrace
scoring
cow
proves
resem
ranking
irre
enhanced
somebody
sneaking
stack
cup
bf4
##theless
1080p
bast
anci
##fire
exists
artific
troops
enix
##aughter
stamina
hrs
branch
##ification
corners
baseball
der
famous
pissed
lone
arms
combinations
destruct
existing
involving
accuracy
gathering
##cr
controlled
##irty
rolling
plane
ranged
nes
exceptional
transform
moral
trophy
unknown
##ploy
defending
freezes
cake
tied
chain
mechs
aged
intelligence
stone
manner
careful
rounds
gripping
communication
overpriced
kin
logic
ignored
file
acts
belong
meter
enorm
aston
magnific
400
omg
incentive
loses
preferred
depends
blocks
ish
contrib
inconsistent
disag
frames
alternative
##kable
reminded
bonuses
##limited
cycle
jer
##jo
burst
monotonous
brid
##others
ordered
dump
wrote
engaged
deeply
hesit
dece
miles
evolve
95
##ener
closed
carefully
corrupt
handed
opposed
consistent
ju
unlimited
killstre
extr
##aria
engrossing
offensive
testing
##cast
surprises
bank
argue
whereas
assist
causes
captain
appreciated
##lom
lived
originality
father
stiff
analog
reset
sharp
##aur
congr
##backs
data
##loved
nevertheless
returns
voiced
##ench
serves
ramp
##lers
##othing
lobby
infect
blah
fox
##mmer
women
##atisf
chos
worried
leve
spy
slap
desert
limitations
blew
discount
replaying
aesthet
beloved
letdown
##spons
dur
whose
##reg
crimin
cheaper
ease
dear
ashamed
hp
##etr
swords
merely
member
abys
quiet
proud
arguably
stays
growing
explanation
ancient
employ
embarr
grindy
snake
fitting
##do
##kin
##idence
sink
meta
rates
stere
wasnt
underground
focuses
gripes
##thm
clues
freeze
##boxes
##meda
expert
streamlined
uninstall
landscapes
##ico
stopping
expansive
trials
opinions
america
ez
socc
d2
dad
cance
silver
##50
##lock
siege
dx
lifeless
jaw
##igi
wield
andromeda
inferior
soccer
finest
latter
tad
##mark
discuss
bount
clock
potions
seven
rifles
mage
serve
vote
recon
looting
ell
experiencing
accomplishment
vamp
##ef
##ularly
##istically
wonderfully
d3
oce
inn
unb
compens
painfully
according
##asm
assets
authent
territ
lengthy
princess
commands
dude
##under
##2w
fundament
category
incorpor
diplom
clothes
##rr
##orn
lasting
regards
futur
alternate
meg
downgrade
343
reli
outs
instances
splinter
##ooked
tremend
slay
greatness
phil
discovered
disagree
chosen
qte
##gain
unfortunate
achieved
touching
darks
##inative
clums
creature
2k1
aggressive
reminiscent
##icity
hating
bund
spaces
2007
##40
reaction
perman
recru
swear
messed
marks
##arre
wear
filler
possibility
law
pretend
phone
prove
proceed
strongest
##wood
obstacles
##ested
drake
pand
basket
repeatedly
vault
reviewed
fulfill
increased
values
inquisition
overcome
drama
shocked
##fest
##ica
##fl
shortcom
embarrass
mich
##ivable
furthermore
consistently
iteration
##mas
toward
##otes
handled
ace
rdr
chill
leap
smoother
bombs
remarkable
shortcomings
unpo
weakest
returned
files
poss
gods
dodging
hi
tested
admittedly
##vity
reviewer
##spect
sorts
involves
russia
dramatic
swinging
appropriate
boun
personalities
hollow
lightning
techni
bang
gas
twitch
glaring
journ
tie
enjoys
excess
publish
bargain
forgive
customizable
4k
##ointed
german
rails
unpolished
science
infuri
ingame
produced
##idian
crying
veterans
noob
andre
toler
##nel
passes
writers
pulling
backgrounds
captivating
facing
parent
ren
adren
psn
produce
hunters
gran
##iously
21
ost
massively
introduce
##force
commentary
repeating
antagon
nazi
##ties
environmental
contrast
##nis
troll
circle
enormous
meaningless
mes
##atos
ham
enth
coup
unrespons
inevit
laz
##rom
stock
outl
swim
2004
adrenal
roaming
lowest
raise
fascinating
##idia
combines
snes
chaotic
center
controvers
deathmatch
fourth
website
soundtracks
terrifying
recreat
kicked
dynasty
fed
##imate
charging
profit
witness
roughly
woman
gamef
immer
sf
vice
##isms
construct
hurts
solely
cutting
bed
dive
##iac
inclusion
astounding
unforgiving
zoom
##list
grown
arts
toxic
##alling
atle
lacked
session
backstory
shiny
knife
##aken
biased
rhythm
abysmal
##ader
redeeming
cyber
biz
jed
fren
north
##inity
stom
##ogun
##bed
substance
stranding
weaker
subscription
anth
unle
##istics
loop
extensive
emer
installed
exploit
esque
fortunately
segments
##arm
##ifting
##usi
phant
touched
luigi
unresponsive
atleast
##ture
##ov
moder
elimin
progresses
2005
failing
girls
suspect
network
eggs
afford
##miss
male
covered
coloss
##antee
scar
magnificent
bin
##pack
contract
definitive
powered
kidding
wwii
kratos
chest
courses
obsidian
blocking
tears
andreas
##uses
exagger
lasts
john
ezio
##eu
brothers
banned
rings
arsen
suspense
immerse
trib
easter
warned
ranks
##uff
arent
slots
consumer
##ology
chief
##atchet
islands
kotor
prequel
jobs
naval
shape
surrounding
motivation
vague
managing
explored
xeno
grace
variations
yester
dealing
removing
##mesis
forum
##umble
futuristic
fence
nemesis
##aku
downloaded
violent
##4d
attacked
infant
sister
deadly
advise
astonishing
grass
clicking
pirates
uncom
distur
hints
jedi
me1
preorder
assign
rule
2008
implementation
videogames
enthusi
opens
cheating
mercen
clumsy
##etta
bizarre
realy
bases
arsenal
##pet
##undant
conquest
bore
solved
dreams
kong
##amped
addressed
chains
fancy
config
##blade
dance
ring
stations
everytime
unfold
pleasing
boys
guarantee
longe
transport
grey
encourages
immensely
eight
fond
##lled
plague
smile
genres
qualities
gym
backtracking
gritty
hence
##wind
boat
kh
rin
olds
quirky
ping
vent
threw
format
emotionally
groundbreaking
evolved
vibrant
##apers
yours
termin
titans
diam
delivery
accompan
gan
grim
introduces
##vo
continued
longevity
funn
amnes
awa
targeting
status
##rog
boom
described
4th
fate
ratchet
##wall
warhammer
rainbow
strengths
##haul
overhyp
l4d
stab
trap
##athan
cared
hello
delivering
summon
stereotyp
eve
sticks
outright
mainst
miser
diamond
ya
functions
payed
requiring
laughing
comfortable
adrenaline
aid
kar
horrid
cook
mc
heat
flav
brilliantly
acted
contact
weaknesses
extras
##ici
gambling
sr
##unting
vibe
battling
headsh
armies
patient
ambitious
punishing
opportunities
politics
helicopter
iconic
plagued
basketball
chasing
percent
travers
ty
lied
foes
alongside
captures
pleasantly
bones
licens
bayon
http
sloppy
##ales
##ques
recommendation
secondly
portray
drivers
buddy
amnesia
##ork
info
tennis
hybr
##cons
##360
##yyyyyyyy
##hog
curious
cheaters
shen
existence
##pping
##lud
retain
speech
fiction
##icle
ambient
primarily
mr
som
120
candy
4x
arrows
##iro
##reh
truck
tricky
wins
films
terrific
crisp
##book
timed
overhaul
defensive
attitude
skilled
spamming
upcoming
prompt
borrow
##alt
village
detective
##atable
supply
presents
##osop
logical
traveling
remotely
gras
regularly
racers
exh
investment
ocean
mild
orders
scattered
appl
ain
poo
##xes
manip
mins
basis
gems
templ
revis
wandering
extended
philosop
ade
betray
robb
pri
##abilities
transition
essence
supplies
typically
abandoned
nec
lovers
heaven
generous
avat
disli
pac
riv
##ismo
##ims
insulting
nvidia
aa
staff
amusing
acce
##cible
traff
unsatisf
##ref
##mob
fatal
picks
likable
magaz
arma
spawns
##aud
arrow
fish
ported
examples
citiz
##let
proof
relig
##rest
##agers
reaching
stal
anytime
satisfy
potentially
computers
bike
floating
journal
eager
href
##ige
##actic
reco
vampire
##herent
basics
catching
cuz
private
steel
shogun
wearing
assum
parry
rental
cartoony
nine
slide
hud
definately
glass
romance
mac
definition
tackle
infuriating
e3
##ael
mentioning
yellow
captured
hl2
gf
pity
unus
30fps
staying
convol
possess
pill
views
inspir
##oe
attem
planned
90s
apocalypse
coupled
fired
forge
girlf
continuation
##oted
##chant
lif
efforts
btm
kat
ppl
unforget
sync
convoluted
originals
additionally
rinse
overhyped
overkill
cloud
tail
annoyance
fortn
cringe
functional
mountains
girlfriend
gb
##room
dry
ignoring
products
nukem
dex
successfully
rub
accounts
traffic
oct
##ration
##dro
chests
plants
rift
yesterday
survivors
univers
stealthy
prince
arpg
artificial
refuse
weaponry
stripped
##airs
frost
revelations
awak
unlockables
loaded
published
##ians
orcs
mund
shields
hybrid
pock
territory
attempting
cater
static
idiotic
survivor
##ih
##ka
closest
sacrif
infantry
tab
trek
##mers
regener
dimensional
32
sen
##real
bayonetta
fm
ga
##33
anthem
phantom
harv
scroll
jrpgs
torchlight
publishers
##asts
charism
monkey
holly
accomplished
overlooked
levelling
pool
coin
clank
capital
complained
metroidvania
mainstream
fab
relevant
##asters
deleted
glorious
easiest
bashing
turismo
thousand
bg
gba
bodies
burning
inh
soci
unlockable
wished
##whelmed
dinos
wich
opened
focusing
sniping
wc3
##stick
ports
barre
simplicity
vert
##ato
toss
couch
##oub
clothing
payday
slightest
behavior
sar
sights
##hrs
playthroughs
roads
conquer
reveal
##ugs
##anger
remembered
maxed
supposedly
##apture
##aft
medic
uf
##pend
##hero
decides
hugely
cheats
laid
##hold
nights
timer
toy
compliment
2009
spikes
unforgettable
cough
f1
whom
competent
questionable
mile
mand
##ighter
ie
interrupt
relies
supported
naturally
synd
slot
apply
traits
##together
demanding
www
pik
grad
##osition
joker
resulting
undoub
consumers
##zen
volume
christmas
isol
##cend
bash
dialo
wander
anticipated
##cise
##enc
medal
google
##mobile
spart
##urity
downfall
array
blatant
##iate
sore
orch
absor
laser
authentic
bind
sab
reused
wonky
smoke
twisted
queue
rescue
flame
elev
capabilities
dress
budd
##iche
tactic
##elled
hyper
butter
spoiled
automatic
irrele
kicking
fanbase
##abor
ellie
diplomacy
dc
client
##erial
avoiding
demand
nailed
skept
fee
states
touches
urge
infected
michael
fortnite
boredom
particip
swap
scored
db
copied
aka
edges
stuttering
attributes
goof
yaku
##rous
mud
newest
anger
maneu
skirm
mord
frantic
stylish
snipers
riddled
polic
directions
population
wwe
artif
sticking
hav
amm
darker
nazis
killstreaks
conven
scaven
award
musical
shel
alert
pulls
##vern
mining
viscer
##ception
##oke
ignor
jungle
brawl
mansion
poly
drastically
tracking
removal
yakuza
ideal
eliz
##reak
viable
relationships
##laim
struggling
nitp
established
wipe
specs
understandable
ladder
rab
##abeth
recover
remaining
controllers
central
##12
##cry
neut
humanity
##ole
strict
superhero
entering
scrolling
maintain
finger
skirmish
##ckey
stor
##ieving
narrow
##lass
##thy
altogether
crush
increases
##aiden
obser
corridors
ord
##ioh
daughter
exit
supr
flex
##xious
outr
snap
champion
aswell
makers
transfer
figuring
royale
irrelevant
skeptical
tip
##eries
likeable
##emy
couldnt
##osal
##ievably
lapt
ms
inac
une
tea
##arring
##forward
choppy
congrat
ped
##ios
##stead
na
york
beware
maker
indic
comparable
overlook
director
humorous
grasp
jam
yo
progressing
occasions
counterp
tends
blurb
colossus
orchest
bust
##vable
##oured
storylines
finds
rehash
pa
##acity
noise
plant
elizabeth
sj
batmobile
hic
hammer
##ural
prison
wreck
quantity
artifact
forms
##iday
disgu
colon
2006
equival
substant
gaiden
wiz
ubi
discovering
gamefreak
dow
neigh
recall
morning
logged
limbo
depressing
dialogs
nier
##my
prices
gall
imho
seasons
visible
phase
march
dynamics
identity
obsess
mirror
photo
##lied
pleth
statement
protagonists
freezing
inability
relic
global
patterns
parents
visceral
##rate
##post
##ship
eth
##roph
draws
century
plethora
unor
slick
cooperative
jan
vul
##water
trave
warrant
comedy
stealing
tacked
bounty
vig
##♥♥
##ura
structures
claims
##gment
##abled
brit
lesson
passive
revive
##ino
agent
##ological
bowser
pale
##zing
##att
answers
dirty
ft
##buster
##erno
nut
##usive
marines
grabbing
treated
abom
amd
##izations
introducing
corporate
undoubtedly
caves
##vr
actor
disad
summer
attachments
fooled
corridor
bench
definet
cheated
flashy
surroundings
adequ
i7
nioh
aircraft
aesthetics
sjw
nar
##icious
twenty
continuing
pressure
beside
aimed
tom
mixture
##oshi
rayman
understood
##ule
rushing
##imately
scaling
twil
divided
functionality
desperately
darksiders
avatar
disadvant
foundation
leaders
unbelievably
wing
conve
unw
skipped
enviro
existed
layer
22
zer
youll
##ott
stood
##thur
##ulations
bog
colours
adults
hollywood
shall
##ache
blazing
fuel
##gi
overworld
glance
invas
##atural
blurry
outfits
buddies
nathan
ts
peoples
explode
featuring
bridge
##mue
bend
needless
rivals
ties
cran
##99999999
manually
leveled
fewer
fov
orange
expectation
##rench
extraord
unpred
eternal
twilight
##hem
roles
tremendous
antagonist
newb
screensh
equivalent
niche
thieves
##eness
subt
concent
terraria
cele
restricted
components
bundle
frag
geralt
##aaaaaaaa
paradox
shenmue
gut
gap
grat
##boards
##oooooooo
disturbing
##iel
broad
chronicles
recoil
unpredict
hire
re4
manager
letter
calls
seek
stayed
capturing
precision
baff
##storm
outwe
##umber
straightforward
amongst
euros
lean
drift
2020
disconnected
alliance
##ilty
factors
repetit
license
vir
spare
everyday
hockey
independ
downsides
pursuit
inspiration
mundane
rag
##ifi
playstyle
rapture
whining
shin
shake
crates
sett
valid
quicker
monthly
godd
##ahah
fought
##now
metas
##formed
birth
roof
prest
##rule
yea
tickets
##tor
##ulated
conn
steering
avo
ken
##head
crus
recome
screaming
pasted
equipped
witty
##dic
##je
blank
fellow
guarante
##8888
penalty
##oses
flood
pictures
crouch
caring
reference
hyrule
dinosaur
skipping
repu
execute
desperate
kinect
laptop
##ye
monitor
showc
marine
##kiro
##xx
outpost
proved
evident
gearbox
turd
advertise
consuming
sleeping
26
ven
shod
##eria
redundant
popping
tuning
fare
unint
##ounds
sekiro
realised
occup
defeating
outweigh
##zer
clut
needing
intricate
gay
rant
##lude
##ioned
skull
decades
##udes
lands
botw
inspiring
nic
os
##pro
soo
decks
indu
requirement
jak
afterwards
farcry
talked
##shad
##ippable
momentum
thru
defined
reasonably
minds
##born
awakening
ons
wallet
##1111
recognize
recomend
axe
lately
##icial
stagger
lond
rights
jumped
succeeds
avoided
simult
counting
closing
accidentally
tb
um
nfl
stad
##ulation
triv
cripp
excel
styl
passable
dao
pushes
contender
assuming
dav
exer
##ulk
freely
tearing
pray
plots
judging
operation
delete
acquire
47
tort
##lect
practices
downloadable
shops
mental
metascore
cuts
safely
cosmetics
wrestling
rt
shout
lover
incompet
fishing
ol
leon
unst
ranging
guessing
firefight
mal
##err
fleet
convinced
settlement
pattern
comics
##ensity
wi
coff
awards
ac3
featured
roller
spiderman
knocked
mandatory
##iled
vend
stud
cannon
akin
gift
td
joel
ack
##hill
isa
##ateur
combining
legion
illusion
tweaking
quarter
raw
##els
misses
bars
##care
affects
benefits
simultane
suited
uncover
faced
notable
delu
device
scrap
ect
lip
wouldnt
realm
matched
shotguns
faithful
##points
discour
republ
amateur
shoulder
annoyances
placement
splat
gw2
slog
gamemo
swtor
discovery
cartoonish
attractive
##steady
fist
##oting
rebe
deserving
techniques
gained
inch
alter
clones
finale
counts
resolved
pig
thread
proven
##ipes
lesser
login
raised
ego
chainsaw
##band
##isons
##stone
dock
obno
belief
affected
tweaked
##pa
##hop
docu
arbit
##arian
walkthrough
roleplay
catchy
sessions
instal
breaker
argument
frozen
innoc
mh
##front
scout
boards
similarities
descent
milk
drawing
bombing
advantages
##code
mordor
smashing
2002
float
rapid
##ods
prey
simil
twin
reskin
outrage
##kee
remix
crawling
unorigin
kud
##zes
enthr
crystal
painting
description
harvest
aoe
sant
tap
void
##sm
##asures
##owns
##rier
##ption
flawlessly
starters
##ours
clip
rendering
##gency
inj
avid
narration
85
##ees
##cip
ange
bothers
patching
rocksteady
activate
excessive
mm
##eg
bell
##cho
earning
microman
spiritual
presence
##field
##sters
stron
rounded
gigantic
republic
sle
poison
knights
shrines
seamless
neutral
mom
##lin
##ifications
squads
xb
toes
prolog
##uuuu
themed
sacrifice
acknow
##ols
chick
##ounded
image
watered
novelty
pau
##ghold
fright
colle
arenas
shovel
decre
obsc
##000
ensure
acceler
##cers
gamestop
spit
proced
unoriginal
eating
brave
nonex
risen
##eds
##soci
##rites
destroys
crucial
helicopters
recruit
travelling
stronghold
hedge
voc
moh
winner
deliber
predator
narrator
ripoff
brink
designer
warfr
minigame
grapp
actively
talks
collectables
##angers
2003
radar
##umbersome
abomination
cumbersome
underwater
tournaments
deluxe
modders
species
##phones
criticisms
##clear
bree
caut
suic
shortc
moron
princip
london
isaac
kings
##bble
##mentioned
valu
criminal
unleashed
hip
wik
exch
drink
warm
tony
hideo
carrying
delayed
tiresome
unsatisfying
guaranteed
vac
sov
goodness
skate
happily
prototyp
contrary
spyro
absent
bf1
signs
rented
nonsens
vertical
yoshi
commer
messages
cliches
explosive
bump
david
tetr
plans
elabor
messy
mixing
revealed
pumping
hanging
wond
tempor
ba
vist
##roll
brav
slam
kudos
pee
##orable
associ
incon
inferno
marked
stability
horses
curse
replayable
skyward
tuned
##aman
teeth
runes
endlessly
defenders
circum
sensit
xenoblade
shoddy
lovable
reccome
longest
campers
streaks
programming
ratio
cookie
prologue
oo
##ti
##ada
bf2
summar
unpredictable
ck
kit
disreg
drawback
robust
tune
pinn
fingers
hiccu
sid
##cur
facts
##ictional
##tric
interacting
spoiling
netcode
##rain
##sem
shoots
##angle
defeated
nuclear
empires
woods
nation
national
sme
##night
##char
##ivers
##creen
thro
deskt
suffering
checked
uninstalled
numb
##iger
knack
varying
goofy
similarly
tetris
##atly
innovations
posted
misle
calm
dbz
connor
reccomend
hiccups
xiii
spite
overwhelmed
##uild
afore
connections
##inking
govern
tax
joining
honesty
impressions
nearby
suffered
escap
praised
calib
settlements
flavor
owe
##uto
##ember
compat
smack
minded
starter
listed
odds
deny
disliked
inhab
800
chases
alan
defence
decently
ammun
hedgehog
eso
preference
expressions
electron
jes
##umed
##anged
lasted
solutions
invin
lootboxes
imaginative
undead
disposal
society
##tery
conce
cutter
barb
egg
outlast
##een
##fights
shared
agend
revamped
sooner
technolog
integrated
destructible
pinnacle
icons
tt
analy
##ulous
heist
scream
relate
xbox360
colourful
pinball
gaining
wack
compelled
steer
entr
surviving
##worthy
outfit
wielding
spartan
mart
##ggle
##resh
superf
reser
##ords
il
p2w
va
coord
slows
deciding
carried
blockbuster
paradise
celebr
nonsensical
desktop
##alone
##owed
trough
brown
drives
excels
switches
traverse
born
##bite
chuck
flip
##nerable
iterations
dreadful
oot
grows
disk
multip
confir
landing
forgiving
demands
outcomes
permanent
unstable
sensitivity
cancer
alas
##ifies
security
handles
winter
removes
luc
obnoxious
nuts
pair
spark
don´t
##agues
sees
carb
bias
shelf
responsible
torn
announce
navigation
gimmicks
conditions
noobs
trivial
##rees
usage
steady
regions
flesh
##apse
downhill
updating
hearted
breathing
layers
receiving
uk
lift
legs
resort
undertale
##screen
pul
##42
tops
standalone
maneuver
bone
hmm
kore
mt
##55
precious
represents
screenshots
06
mechanism
explaining
revolves
valuable
stap
baddies
fog
evidence
distrib
absence
dimension
horrific
hawk
aforementioned
29
##wing
##omn
haz
intent
register
remedy
meeting
unbear
grappling
ammunition
tall
compreh
bravo
dre
vc
downloading
slowdown
prototype
allot
madness
dreamcast
claiming
##haust
noted
10s
approx
##ilians
tougher
reduce
liberty
rdr2
inevitable
jason
##oking
beef
bitter
communicate
profile
determined
behavi
contracts
occasion
tastes
triump
ordinary
##13
mana
##phone
sentence
increasingly
##house
shining
kickstar
##rem
##itors
wears
height
satur
wildly
til
##iter
merits
unusual
frostbite
extraordinary
repetitiveness
roo
##mod
drifting
capacity
sensitive
nerfed
sized
##azz
collision
largest
simpler
baked
toys
##arse
exhaust
clipping
80s
stores
methods
##hand
##fight
noire
convincing
wip
##sor
sprites
##urai
supports
turrets
punished
highlights
exhilar
##lless
##anity
preview
intel
flop
masses
devast
activity
condition
reinvent
wizard
adequate
simultaneously
splatoon
jarring
butch
sinc
draft
destination
##balance
branching
triumph
kickstarter
native
##icable
##style
cock
overshad
clo
meters
speaks
civilians
dps
##eled
trag
goods
spear
pub
confident
##6666
unimag
vall
##esis
topic
ambiance
tunes
sending
hr
##ission
codem
torment
tweak
ingen
spike
sarc
i´
pays
##arms
adap
bolt
sledge
wrapped
carries
soulless
insomn
subpar
listened
attempted
appeared
##hhhh
consequence
goddam
xbl
##etive
haha
flows
explains
shortly
screams
banjo
nails
lords
arbitr
##hroom
cham
standpoint
tombs
compensate
eh
nam
##die
##uting
##ools
bold
prett
builder
entirety
beasts
rubber
inaccur
enchant
crown
peak
owns
customizing
cheese
autos
citizens
convey
##ody
##pool
##ingu
mighty
crawler
chines
abuse
messing
boosts
uncle
mythology
mildly
congratulations
gpu
##orph
defi
wrap
phr
collected
mixes
morons
plastic
switched
mercenaries
##encies
ja
graf
##aved
ac2
consideration
circles
coolest
transaction
speeds
joystick
suitable
isolation
dwar
echo
reck
reactions
soph
saf
posts
uninspiring
blatantly
eb
donkey
climax
##wal
##oomed
unh
poe
expands
##steps
gimmicky
subtit
commercial
reapers
##ilation
realistically
##olen
exclud
brilliance
dragged
chinese
##che
instruct
##nels
frustratingly
borr
ng
stolen
dayz
fluent
drags
french
british
nonexistent
##iation
asap
##ressive
countries
crawl
pocket
sincere
nasty
##life
##alled
email
microtransaction
oddly
dissapointing
exceeded
karma
kaz
locks
##mond
offend
generator
mw1
closely
expanding
pistols
downgraded
policy
rack
##15
##etime
limb
outer
linearity
escort
college
sooooo
ligh
exceptions
exceptionally
stupidly
walker
surrounded
naruto
sly
##enix
ofc
##thought
##uls
remakes
behold
2001
blasting
frontier
camps
duck
nan
partially
duel
workshop
weekly
demonst
opposing
ledge
convince
mute
zen
##omin
doct
measure
bush
populated
revisit
cel
darn
wings
prone
harm
chris
surpasses
intentionally
gradually
cul
todd
itch
##ulating
gray
leagues
supreme
hostile
determine
ec
xd
retr
intensity
mechanical
humble
quirks
waker
##gen
##ads
spong
walked
##bye
sexy
subjective
buffs
pikmin
substantial
ow
mayhem
lagging
armors
spray
occupied
insomniac
abrupt
psvr
leth
##undance
ds2
mysteries
shoes
riot
23
pants
##punk
##inks
pointed
persia
relief
imagined
criticize
warframe
5th
pages
##uc
##ado
##earing
flick
selected
sorely
65
clu
strangely
impl
2033
runner
challenged
figures
soooo
syndicate
lb
ml
uplay
##eding
notably
##ressed
attachment
ale
##itect
charged
##ousy
parties
sliding
monet
carn
progressed
traded
fx
ti
ware
##illion
instinct
limiting
approaches
explosion
sexual
exhilarating
##ouge
re2
owning
caps
hungry
sucker
morality
patro
banter
dramatically
cage
james
kits
##path
##ervice
coaster
usa
blades
sounded
handy
performing
trolling
writer
jag
wet
##lity
plasm
sells
##abe
truely
codemasters
wis
##esty
convent
moreover
armored
glorified
swimming
##uous
##oul
##itz
##anet
degr
disable
depl
heroic
plug
pointing
loadout
##place
inventive
architect
exercise
a£
hates
tips
moons
interview
awesomeness
refine
laughs
vital
distracting
##cape
stard
bye
taked
masterful
duration
sigh
scient
engines
bandits
hatred
cohes
croft
circumst
vats
thunder
##erie
##ros
commend
striking
reported
licensed
prestige
inducing
jets
rust
##tte
##arter
drug
pcs
bread
borderline
ul
##ko
reloading
##ald
##ama
lev
browser
continuously
hect
scri
guilty
surf
negat
struggles
megaman
controversial
##jekt
namco
comprom
offense
##teen
##aches
collapse
##works
spawned
drawbacks
troubles
labor
electronic
uber
##rix
##ometric
##axis
spotted
dub
unsk
officially
lifetime
wonders
disregard
agenda
dick
frig
importance
electric
independent
##ely
sharing
alch
missiles
decl
relative
namely
margin
exploits
renting
strictly
confirmed
defiantly
fc
lud
rend
stumb
asks
##entious
grain
minions
replayed
interactivity
efficient
coold
brutally
traversing
elaborate
tiger
##oning
warn
staring
headphones
yep
fills
homage
misleading
ax
##days
##fact
clips
embr
matching
considerably
##oids
innovate
translation
valley
ot
chess
smarter
beginners
boyc
unsure
bastion
nations
##of
toile
covers
armed
throne
meanwhile
subsequ
marvelous
lobbies
rehashed
royal
european
soviet
##ara
interp
assed
indian
##shine
divinity
midnight
inexcus
invasion
haunting
cher
maze
paris
temple
tablet
concerns
ufc
sledgehammer
##unts
trapped
adore
ambush
refunds
salt
lightsab
magazine
tbh
gard
##hor
##inction
injust
gru
perfected
galactic
americans
distraction
categories
surpassed
embarrassing
ignorant
designing
breeze
sunk
reign
enr
squee
burned
blocked
succeeded
unforgivable
utilize
##warrior
lady
##14
##icoot
beam
stro
sponge
##rial
offset
aggr
mines
artists
rambo
98
dif
clans
craz
genesis
drones
bikes
doubts
periods
raiding
##erning
evo
positions
pressed
dissapointment
crimes
clubs
##kind
thir
toggle
overd
guardian
belongs
##fy
canon
peer
multitude
talents
crisis
micromanage
fusion
##une
scari
newly
disapointed
cargo
frustrate
court
foremost
bandicoot
navigating
laziness
polyg
dudes
flank
glowing
headache
engineer
purchases
clearing
damned
comparisons
freakin
constructed
##ban
sparse
props
mastered
fastest
treasures
posting
closure
dense
neck
isometric
##arity
usd
augment
ds1
exchange
27
##ills
slapped
disapoint
portions
claimed
fundamental
definetly
tables
justified
scum
mechwarrior
criti
headshots
storage
##otion
##ched
goodbye
lend
heists
disj
absolut
codes
rolled
kingdoms
seamlessly
disadvantage
unbearable
##ua
##redi
##sec
adorable
desmond
mechanically
joe
throwback
encouraged
contribute
goddamn
hectic
mim
##bid
wherever
##veloped
packages
calc
reflexes
scarce
assem
##rome
##icked
programmed
crackdown
invincible
injustice
lousy
##uits
hover
reaches
##rophob
tragic
fictional
mul
##ouls
##iltr
##ifts
disre
flare
subl
devoid
elemental
carbon
cc
gee
ugh
##aver
thick
quote
decor
loadouts
intrigued
creep
prevents
quarters
lee
##30
purple
dominate
bird
ou
wider
##pot
##ett
heading
blends
barrel
tac
##vin
pretentious
infiltr
oblig
infinitely
welcomed
miserable
chunk
rolls
defining
joined
hacks
filter
claust
bandw
sweat
punishment
eternity
logs
lotr
factory
##udo
respects
##games
respawning
representation
mutants
configur
ditch
##not
consp
##quest
drain
drunk
##enses
entit
refresh
redo
distant
laughed
psychological
controversy
cyberpunk
cab
##winter
##lete
adop
placing
seeking
cliched
1998
https
cens
dim
##eng
##ena
images
contem
symb
mediocr
fulfilling
accompanied
shortcuts
28
jones
##och
ther
absolution
filling
refunded
babies
charismatic
dinosaurs
inhabit
claustrophob
hallow
##clu
wealth
##opho
bless
resur
fantastically
insight
stupidity
##riptions
##bby
miserably
fabulous
disjointed
##keys
modded
distingu
connecting
approaching
negativity
eerie
pawn
##v1
deals
abundance
##agr
agents
contents
fairy
masterpieces
streak
legitimate
gau
ze
##eni
whist
plent
neverwinter
conclude
grabs
victor
links
borrowed
gory
##ston
orbs
trav
arthur
unnecess
chrono
loyalty
sacrific
tropes
gfx
obscure
unimaginative
scripting
garr
##vs
shap
upper
##away
leaderboards
resembles
cancel
suicide
government
unskippable
aggrav
dict
mate
##opes
highway
1999
mania
cried
kidn
ingredi
disconnects
mediocrity
fide
looter
barren
casting
arrived
affair
##laimed
##uary
grant
hass
evening
distances
immediate
intrigue
apolog
terrorists
billion
motorcy
toilet
barr
fid
ripping
mages
sli
keeper
pay2w
masterfully
collaps
deadpool
##shell
hearth
innocent
inexcusable
sack
bee
##lying
backdro
columb
objectively
appearing
matrix
salv
routine
restrictions
hinder
uncomfort
instalment
jesus
lethal
bom
dang
##lan
realizing
versat
styled
cooking
milest
intellect
priority
influenced
disrespect
hay
##rek
##una
worms
##wel
cleared
complains
merit
repetetive
plentiful
unnecessarily
720
##ores
brains
flan
instru
guides
concerning
arrive
samus
bounce
i5
scor
smg
believed
trucks
projects
inaccurate
sublime
fromsoft
coven
vein
knuck
theirs
beginner
provoking
addiction
wildlands
jetpack
pay2win
lush
##bot
##oop
##imon
served
amazon
sounding
bio
infl
ridden
immersing
exploding
milking
accurately
ironed
healer
deploy
austr
modified
##auts
herself
artstyle
polishing
immature
##ync
flashlight
exclusives
cliffh
permanently
philosophy
55
tyc
gotham
artill
replays
continually
defender
growth
occurs
##va
##bility
grave
##actory
letters
classical
markers
district
performances
dependent
staggering
subtitles
##ophob
gates
yu
##overs
shit
coat
coherent
intim
unlikely
headshot
##iversary
ath
nt
##kk
doa
amii
sailing
##print
scanning
gross
wire
yourselves
ads
partners
boils
marketed
operations
hesitate
benchmark
austral
hater
nc
##itly
stating
##alu
chlo
orc
projekt
wacky
sot
ally
alley
atari
corps
author
talented
fortune
incompetent
luster
tps
##mans
chair
##opath
##aint
united
mont
shameful
trainer
organic
instructions
rum
plate
firm
wiiu
sanct
domination
columbia
##isters
reverse
consol
thrust
samey
anniversary
cooler
popularity
boots
lonely
##yyyyyyyyyyyyyyyy
plasmids
tiring
mel
serv
warp
mastery
cursor
begging
goldene
brainer
undeni
wheels
anticipation
vulnerable
artillery
og
sap
exotic
artist
racist
lively
casuals
galore
novels
arbitrary
sophistic
bite
gc
qtes
whit
##acon
creations
connectivity
judgement
stutter
uncomfortable
goldeneye
ears
gg
##fty
comical
exposition
yearly
remade
thoughtful
untill
invite
rockets
pops
directed
automata
tropico
philosoph
eagerly
##ooky
weigh
bl2
casino
irr
protection
sincerely
alchemy
dk
punk
##86
proport
partly
strangers
underne
masters
villages
spraw
contrad
historically
sympath
nutshell
roleplaying
circumstances
aud
dar
##mar
crpg
backed
uniqu
adventur
locking
mmorpgs
volvo
inevitably
pillars
rooft
interpret
tycoon
rope
##esign
shrek
##ishes
##rian
testament
fields
positioning
wooden
religion
participate
convenient
##itter
##verted
ranges
potato
evolving
geared
associated
symbol
underneath
dw
lav
##don
##hr
flowing
wrath
entered
gt5
dancing
triangle
outposts
alex
chloe
east
ia
##pable
noises
remained
supern
walks
furious
forgiven
outdo
artifacts
showcase
59
cous
peter
vii
##ghz
timeless
heights
characteristics
offs
brick
applies
##bbing
turret
palette
wiki
behaviour
cort
edu
mars
##long
china
grate
pride
mapping
underde
indication
construction
episodic
maintaining
ssx
portrayed
wiim
staple
ico
##tek
fled
tera
randomness
diving
physically
followers
competing
integration
inconsist
admire
sprinting
gallery
lucas
bc
dy
##onts
##asher
unav
##mented
compos
wishing
footage
splits
stadium
uniqueness
##yles
littered
applied
paywall
friendship
majora
devices
villagers
judged
bursts
gent
ka
##udge
launching
hacker
##career
cube
lite
thq
spice
office
failures
gladly
##break
teammate
excluding
d1
##iplayer
##llll
sheep
atm
afric
playerbase
decay
assure
corre
producing
minority
laughably
resolve
employees
wot
##word
##ldr
leaf
collectible
fifth
fury
terrorist
hassle
oil
##hard
grief
nove
##andy
hdr
samurai
ironically
centered
exaggerated
pipe
##oned
rewind
ate
poked
##atement
combats
swarm
randomized
confirm
parall
risks
unimp
mercenary
enviroment
torture
claustrophobic
educ
600
fame
jug
pse
##oons
##inging
##chool
goat
drown
rune
##leep
footsteps
confusion
purposes
dedication
obtained
preordered
neighbor
mlb
supernatural
vivid
stash
comeback
neglect
behave
lowered
mobility
completionist
ladders
##matched
##eeeeeeee
tribes
venture
ludic
fidelity
si
##bits
##asant
rear
composed
##agn
disabled
insanity
corny
magically
transitions
sched
fifty
forgetting
installing
ambition
exclusively
urgency
victim
attribute
throat
entitled
bomber
bc2
ki
wrench
unra
spooky
overst
modify
accent
cameras
marred
unreward
structured
eliminate
enthralling
##ku
chem
boats
harry
temp
guilds
shoe
planescape
birds
muddy
vigors
unintuitive
halloween
intimid
nause
##bi
tomor
gamespot
overused
thrones
incarn
stunned
digging
selecting
sunshine
disguise
gamplay
##blance
shaded
illeg
boundaries
crucible
obstacle
dx11
##vision
fraction
alle
melo
buried
appalling
hosp
launchers
digimon
rebuild
stutters
punishes
clancy
stereotypical
acknowledge
aliasing
tedium
ssd
##gil
##eted
dos
dose
sums
installation
responses
##iko
explosives
gender
##graphy
fundamentally
stomach
architecture
conspir
##club
furn
belt
##ags
underpowered
signature
apex
viet
restrictive
recognition
kazoo
gro
nom
nwn
por
rook
##inable
rewor
##aus
conser
curios
##balls
contrived
individuals
##ggling
symph
hesitant
##cover
##wr
##lend
moan
crushing
buys
brim
laying
mercy
robotic
xbla
49
tide
##omy
myri
##urance
amaze
stray
raising
fluidity
tunnel
firefights
pubg
thirty
beach
rechar
friday
goodies
gog
slaugh
define
smallest
fires
literal
tests
riddler
magazines
stalker
tomorrow
yay
awfully
boasts
enemys
ranger
##eneg
linked
applaud
sponges
unrewarding
tens
##rum
##irth
trion
modifications
versa
cods
evalu
relation
glitched
sufficient
shadowrun
dynamax
latency
pumped
delightful
counterparts
aint
##zed
socom
##ssss
dismiss
happiness
ff7
represented
mutant
##iciently
outrageous
santa
mold
scaled
afterthought
buyers
persistent
potion
crytek
250
struggled
investigation
miami
borrows
dat
hus
##asma
ster
bo2
detro
paragon
favourites
relying
displayed
cliffhanger
pseudo
##dead
##icky
extract
devol
garage
restarting
romp
sacred
moderate
deliberately
overshadowed
hood
splend
channel
portals
immort
redeem
wiimote
raging
##iently
mankind
obso
frustrations
collector
dragging
nerves
individually
gamemodes
##mates
whack
poker
seper
slashing
annih
maxis
dealt
strip
optimal
investing
retains
inconven
fuss
stumble
atlus
adam
intrest
peach
usable
imper
pricing
raven
silence
thrilled
acquired
understatement
hamper
gaps
pets
##nam
##tw
##lash
sto
stan
expects
problematic
portra
hacked
legendaries
earns
indiana
lightsaber
unravel
dv
##can
##bar
choc
washed
aby
upside
clash
marker
40k
appeals
descriptions
floors
##graphic
floaty
detroit
ber
lap
##ince
stole
##adel
clement
relent
rides
grabbed
snipe
investigate
november
pokedex
##layer
notor
chee
chased
quad
##arest
interrog
##ails
foe
segment
uneven
doctor
kazooie
##mp
playground
asleep
contained
##omed
backs
flies
##beat
headset
steaming
positively
cardboard
coordin
assembly
myriad
apr
##iated
##90
inher
nose
manu
tails
missile
income
mushroom
porting
mindlessly
seasoned
enhancements
rapidly
720p
bb
##inent
##ourse
cruel
##aws
crossed
catac
motivations
ticket
transformers
##cious
##alous
##seum
meas
performs
persist
generals
editing
assassination
glados
nuff
river
##see
slaughter
accust
customized
retry
spring
bounds
docked
curiosity
tang
exo
sher
glued
damaged
credi
facebook
programmers
continuous
panic
holiday
abyss
09
drew
##find
revers
mycareer
leaps
unif
sciss
knocking
limitless
spoken
mgs4
scratching
baldurs
corrupted
yards
todays
##riers
extinction
huh
disappointments
mastering
healthy
percentage
excelent
1v1
alice
theyre
cram
joking
dips
splash
raiders
forests
unfolds
obsessed
nicer
vistas
travesty
underdeveloped
lane
tu
neon
quantic
warzone
casually
simulators
serviceable
preventing
adjusted
synch
schemes
reveals
aesthetically
flexible
lun
##pit
whine
visiting
accum
corpse
##boarding
layouts
wann
paired
cohesive
##lot
clicks
##los
covering
accessibility
commando
statistics
tropical
technique
##mission
counterpart
hearthstone
irrational
gentle
cure
nick
##ca
##unted
chall
spore
finan
struck
russ
optimised
spinning
stressful
durability
charisma
zerg
baffling
pigs
sophisticated
bears
choke
buzz
unmatched
particle
fo3
coding
retreat
noticeably
bridges
fatalities
prettier
dating
nook
reneg
sizes
cole
impat
develops
anno
variants
##ynch
ds3
hurry
brainless
punches
incorporated
tolerable
universal
frightening
subsequent
obsolete
clementine
characterization
clou
backward
pho
progressively
communic
##plic
treatment
punching
triggers
roguelike
liners
exceeds
robbed
stylized
superficial
amiibo
180
qa
r2
pew
annoys
picky
redesign
polar
sticker
illog
sprink
rebirth
departure
funniest
advertisement
sprawling
fools
tldr
##hot
nex
##acks
cluster
blunt
blitz
giants
satisfactory
gta4
fluff
rigs
pilots
customizations
accordingly
scavenging
xv
##dder
##erun
longtime
bleak
hills
planetside
sends
riddles
admission
replacement
08
sits
exam
coast
string
miner
##ending
insist
wolves
legitimately
fp
roman
##a¥
##bu
##stri
stare
ang
##ires
farther
gamble
surreal
confront
cleverly
sunset
necessity
reflects
newbies
knuckles
philosophical
fledged
pear
##vation
##eties
hah
habit
handic
annoyingly
colored
ambig
archer
adjustments
nightmares
reports
websites
wiped
##iber
##ya
gameboy
ree
re5
##appy
insert
nerd
expression
slaying
##9999999999999999
summarize
announcement
ingredients
##a¥a¥
##class
reaper
noticing
##oping
amal
##agging
sean
drone
recipe
slip
slider
relatable
editions
cryst
primitive
advancement
degrees
unexpl
economic
citadel
##okai
gaun
binding
##88888888
korean
accustomed
cking
pink
wicked
##vor
stim
hamm
exiting
quicks
multiplay
espn
superbly
quantum
deception
##ji
timeline
bummer
##izable
boast
pixelated
aiden
autosave
dwarf
gree
altered
##ria
superstar
drove
divine
pathfind
profound
competitors
strategically
5000
grapple
betrayed
pedest
unclear
milestone
covenant
48
woo
##itation
chal
shady
unpar
pupp
puck
infact
sadd
parody
bloom
android
lasers
teaches
rebell
carnage
37
ddr
waw
alb
##sport
drugs
cryptic
deduct
timers
fashioned
daddy
laws
shelves
fade
lam
uh
##dit
##este
greats
maniac
guerr
solar
##orders
stickers
flexibility
entrance
tempt
##ias
##friend
spades
##urally
flower
musics
glim
excellently
blackout
industrial
answered
07
gm
gaz
jue
gobl
insign
sorted
masks
denying
peaceful
corporation
cluttered
boycott
renegade
bam
hog
tiers
enabled
exped
study
pickup
medals
idk
respective
praising
empath
hilariously
reinforce
deriv
slayer
garden
egy
ni
wides
##fin
noting
noir
gunfights
asset
property
thriller
blueprint
padding
horrifying
jewel
principle
approximately
limbs
ct
ee
icing
##16
toad
##iture
##enance
shading
iffy
hitboxes
quicktime
submit
confidence
goalkee
mentality
ebay
gauntle
pounding
rul
##nn
##marks
tok
shy
shards
intact
buyer
warr
toned
primal
odst
blindly
teenage
traversal
vocal
lbp
illogical
egypt
39
bulk
nig
p2p
##try
##ustre
interf
sinking
puzzling
infested
ceiling
rotate
remarkably
precisely
nap
ome
voting
drinking
slice
##olate
eleg
communities
urban
unfairly
encouraging
delve
reliable
downt
devastating
cooldown
phoenix
cats
ron
##iant
asc
sha
ori
sucking
##istor
plasma
##ago
endearing
stranger
stepped
hopping
freem
indo
##00k
producers
briefly
committed
colonial
hospital
tighter
##gent
##2k
##itute
##acies
##urs
##urch
payoff
regis
homefront
##going
newcomer
killstreak
tremendously
gruesome
micromanagement
ns
##orse
rect
holo
unfun
excuses
headed
accessories
##00000000
bait
safety
guerrilla
dax
eag
fer
gim
rp
##ux
##ette
asian
crude
campain
extrem
powerups
breathe
repetative
trainers
caliber
opposition
penalties
citizen
birthday
pulse
bandwagon
splitscreen
rebel
happier
acclaimed
slowing
##shot
ambience
cells
goose
establish
neighb
angel
illegal
nearest
spiders
multilayer
insta
##aki
signed
##peared
##drive
femin
witnessed
religious
crusader
acceleration
sarcastic
cyn
##hz
##hours
inner
stones
unple
defenses
assas
reasoning
helmet
redef
trevor
tasked
##step
sanity
mirr
tdm
calibur
x3
##bbe
##erion
##isable
rez
stance
##oph
recipes
evade
resulted
hotline
piracy
evolves
##cule
motivated
##rrrr
moderately
manufact
fc3
##gling
fraud
abit
unl
overc
sept
blops
eastern
consume
coded
daunting
optimisation
raises
bowling
mentally
orchestra
aggravating
33
chun
orb
heap
imbalanced
considerable
edgy
unreason
mistaken
framerates
separated
rotation
hawke
ben
##riment
##bled
thugs
##nday
whiny
unbe
##itely
bla
skies
slim
decline
gliding
promote
shameless
tradem
vergil
salty
spaceship
assigned
mulit
daxter
pits
cho
chip
grips
trades
pose
preced
contest
##mode
drab
generate
supplement
achieving
ledges
detracts
incorrect
octo
virus
vietnam
69
aven
##mons
whip
##illing
boggling
elves
superman
retard
boxing
crossbow
raiden
198
tackling
bags
disappearing
congrats
rampant
ftl
newbie
ingenious
bun
ox
wine
yawn
##fix
##zy
##jack
##lla
mail
expense
lovecraft
defiance
december
detriment
repeats
crossh
receives
sensation
##ubes
scratched
prize
immortal
unparall
mg
gamebreaking
sham
atl
incoming
depict
request
sadness
tunnels
sickness
esther
worrying
championship
inexp
manipulate
clouds
bows
lis
ys
##ran
##meri
inject
fronts
arno
gunning
racism
criterion
limitation
sorta
mgsv
geforce
dispatch
miy
oldschool
crystals
tokens
registered
fates
lau
sided
##ormed
bells
##ecc
shipped
##uman
reply
stepping
fodder
restore
forgivable
scripts
queen
admir
teenager
bouncing
gauge
rm
proph
sc2
arrog
feb
imperial
capped
located
motions
##falls
altair
clocked
##agraph
insignific
foul
gor
math
##gar
##vous
##cl
whim
containing
persons
dunno
hunger
bulletstorm
completly
separately
foolish
maintenance
criminals
tribute
cgi
les
pour
tid
##iar
someday
traged
##mental
firaxis
addon
fanatic
extension
monica
capability
collectors
hunts
hooks
luke
spirits
officer
passionate
##oly
upload
overload
campaing
woe
relics
potter
advancing
paragraph
suffice
logging
sources
monotony
candid
jerk
templar
taco
cousin
furniture
reworked
scissors
36
dee
backlash
duels
blocky
unnatural
hallway
##gggg
funnest
coffin
coffee
squeeze
dvd
sd
##iver
##bound
fors
soap
asp
tran
performed
realms
twitter
disappeared
mindbl
painted
civilizations
bareb
absurdly
barrels
naked
##hol
mock
comr
elf
eleph
refuses
blizzcon
para
unrel
compares
replacing
tlou
bastard
cues
##ea
##gt
##ito
fruit
brute
##aky
##tract
slowed
subs
fifteen
unchanged
hideous
syncing
mesh
enviroments
compatible
clay
hots
theater
##rob
craving
sail
skating
mainline
sweep
defines
interrupted
phrase
services
derivative
hired
align
endure
agg
improv
ordering
depths
transp
guardians
mesmeri
caution
fue
##iors
whin
brake
needlessly
reson
sway
##athon
outdone
feeding
wipeout
unhappy
bushes
conspiracy
catacly
russophob
dimin
jur
mik
wb
##net
stagn
##think
unstop
assess
cheer
guessed
chores
bogged
wannabe
unparalleled
dagger
rumble
rouge
shattered
clar
perm
##ression
fantas
turbo
nuis
trusted
accepted
bounties
enthusiast
prompts
betrayal
ludicrous
sque
##ualy
theat
##itate
##ooo
manga
controlls
customise
##erness
beatiful
diehard
summons
masher
ironic
housing
teleporting
corruption
pockets
document
chicken
collapsed
greek
dil
nether
tin
tout
taught
zip
re6
reap
##etyp
trained
swapping
begining
criticized
reinstall
organization
unpre
artificially
bankrupt
terminator
indicator
jagged
thirst
flanking
lava
cataclysm
##oles
##10000
##rete
##usters
exile
shapes
intercept
braid
throughs
yelling
counters
crowded
intentional
stretched
cowboy
nitpick
conceived
kun
##mined
serie
##orship
mindset
launches
soulsborne
properties
boosting
television
awaited
motorcycle
splendid
tent
pod
anyhow
awarded
underlying
visited
arcs
zeroes
corrected
thrills
identify
1886
1990
overwhelmingly
swearing
lifes
janky
mirrors
aqu
hen
##dog
##fun
enable
upwards
unap
lessons
annual
rude
critically
offerings
bfb
viewing
checks
critique
unpleasant
mindblowing
eater
sust
##rodu
heaps
blink
aging
shouldnt
starf
keen
lists
competitor
undes
16gb
conviction
mounts
locales
stereotypes
egosoft
stanley
gains
neo
intensive
##assic
##riage
bo3
flush
standout
epilog
reddit
bonfire
tendency
involvement
temporarily
absolutly
distinguish
contradict
trademark
rats
sir
##dling
##uity
##25
shed
worn
crate
diffrent
brush
incap
modif
steals
smith
relive
wildlife
profits
temper
gyms
templars
student
corpses
gauntlet
cav
lur
mant
py
ves
##tim
##ille
trine
assort
playstyles
archa
beneath
queues
lacklustre
disgusted
brawler
incorporate
tong
##car
##ww
##leton
stil
stem
exe
ati
hex
descend
teh
beings
flair
disappoints
##isingly
negatively
barrier
turtle
varies
shares
kirk
ffxiv
cancelled
escaping
offended
impatient
juego
rave
##rad
##anny
##etically
##ifted
contra
##istry
bypass
impecc
braz
ac4
sins
gund
fo4
aval
remembering
wilderness
international
impactful
screwing
ramps
flee
mig
pag
pains
##wars
##fers
stink
##seen
exter
shaking
##igan
amuse
disor
hardline
paran
spoon
minimap
cents
occurred
engagement
temporary
shaped
kiss
##mind
thier
##erent
##reed
anx
likewise
spide
perse
backpack
slug
##attering
ourselves
seller
booker
nervous
archers
recorded
bending
enchanting
parallel
rookie
sisters
##inth
##edia
##idos
shifting
leis
preval
charges
##grab
disclaim
viking
shockingly
awaiting
necrom
naive
decrease
unstoppable
hulk
lm
rose
stairs
afterno
shoulders
strings
assumed
excellence
wishes
tactically
nonstop
##ucky
cinema
opera
organized
uncommon
gangs
crusade
intresting
guts
##iety
##tech
##father
##team
bru
sidek
phases
shells
deepest
popped
##aaa
homeworld
archetyp
configuration
inhabitants
versatile
spidey
leisure
uncon
nov
outing
teens
##olith
enticing
battlefields
ffv
consistency
automated
sneaky
dimensions
teaching
ragdo
##11111111
shouting
rebels
threads
cherry
omega
october
tragedy
barebones
##liness
##ocks
inp
##sect
lil
stead
battleground
specialist
yell
affecting
projectiles
insignificant
epilogue
rb
forbid
steamp
hoard
##iiii
bugg
castles
110
consisting
saint
resemble
frenetic
polygon
dum
rive
rade
villi
##len
##76
monu
massac
hopeless
retards
redone
formation
profiles
dodgy
nerve
##cuss
losses
utilized
glasses
syndrome
havoc
numbing
abruptly
ncaa
##road
ala
worries
melt
slasher
targeted
disservice
treating
quitting
##ascar
murdered
chilling
injury
jurassic
2x
38
##vw
##enn
swift
unfam
meticulous
glitching
aimlessly
reminder
merchant
banner
duo
misunder
senses
operative
ryse
overdone
intellectual
homing
##cially
##bers
##bur
moo
##ece
bubble
becu
manh
workers
epit
refused
normandy
famil
##ageddon
legal
masoch
flags
recycling
preser
pitiful
crushed
gamemode
##66666666
fromsoftware
radeon
88
##iums
toe
re3
##ented
##imated
museum
compr
fold
asses
adventuring
confined
rocky
revamp
manageable
invented
dogma
delays
engrossed
jealous
germany
absorbing
##aaaaaaaaaaaaaaaa
rebellion
disclaimer
ling
rarity
##fg
ital
inline
playlist
##irl
whatnot
overview
complement
drastic
gunfire
metaph
cheers
wondered
despise
demos
filters
merch
suggestion
spectrum
reflection
froze
ladies
petty
bucket
april
6th
tiles
##rating
##yo
##zu
ink
##unity
balances
lightly
harmon
utilizing
ffxiii
translate
teenagers
crippled
patrol
contempor
september
necromorph
gord
pd
w3
##ost
##map
ita
##anging
whe
rosters
mapped
monolith
##ierce
spectacle
nerds
pisses
motorsport
pandora
flamethr
elevator
unfamiliar
doomed
##tles
##ystem
shove
exposed
##abling
puzzler
blizzards
confuse
stunningly
morale
implementing
processor
enhances
pixels
distinctive
sidequest
ethan
intentions
axis
forsaken
tile
tyr
##armed
ongoing
stinks
apple
continent
activated
imaginable
patri
respectable
mobas
purposely
diversion
folk
enthusiasts
concentrate
moronic
backdrop
undeniably
unbeatable
##any
##imes
trains
trico
loosing
veget
surge
swings
smite
##bert
barriers
dumbing
snowy
licenses
butchered
friggin
neighborhood
##riel
##ibly
##vv
##cil
##xual
##isive
defect
dise
syner
glide
breach
memorize
executions
crowds
cooperation
homm
poop
7th
bout
jac
ly
nero
oly
##wire
##member
##ona
##stars
france
##imp
##sored
guided
typing
criteria
firearms
explorer
supers
1920
audiences
adjusting
booted
label
debut
recreate
0s
acclaim
assists
##shop
devoted
hunted
optimize
bottle
saturated
##strike
gundam
42
8gb
900
xl
##zilla
haunted
chic
noble
sphere
hefty
seeds
perception
##rypt
progressive
immerses
douche
##bbed
detected
geome
synth
miracle
revelation
suspenseful
dressed
ofcourse
interviews
enrich
fath
##coon
##itting
butthur
wash
##ulator
##ainted
coal
quotes
persu
conclud
sector
breakdown
viewed
clicked
shoved
experimentation
decept
censorship
financial
96
cm
ctr
nigh
##orms
abst
unop
simps
slipp
interests
##ensible
valky
motives
suggested
treats
labyr
##onym
appropriately
gutted
rollerco
i´m
scariest
kidnapped
amalur
chunks
afternoon
borders
cath
hm
poured
raz
x360
##bids
##mith
guest
helpless
unreli
logo
lockp
obliter
triggered
distracted
bearable
commitment
tolerate
##acer
coach
gui
##berg
sticky
appreciation
banning
flashbacks
facility
records
resolutions
tires
branches
procedurally
ttk
nuisance
prevalent
olymp
labyrinth
azer
bul
lure
tarn
noct
disga
fines
battlelog
starve
pokemons
foreign
grouping
photos
procedural
resurrect
candidate
dn
garn
kor
vader
##big
tol
aloy
prospect
10x
gta5
driveclub
silenced
rigid
testers
adaptation
dystop
unimpressive
aster
emo
tapes
vom
stark
whis
preset
##zzzz
avp
cannons
parach
airpl
dominated
sabot
adapted
schedule
tongue
79
970
bers
mit
nah
pi
scept
##master
token
imbalance
##uma
badges
sliders
##arians
singular
##gern
sadden
prominent
arcadey
climatic
widely
pretending
##smith
disgaea
mish
pound
tones
tink
exquis
conan
nod
proving
litter
##space
slides
flaming
accents
uniquely
godzilla
grounded
bleeding
cartrid
dissappoint
skeleton
chopper
integrity
hindered
unleash
exaggeration
l4d2
oozes
javel
cortana
r1
##rive
wholly
warz
hopeful
concrete
skelet
cliffs
discussion
##iciency
97
kane
nascar
umb
##sis
##itated
comers
aler
overpower
##ortion
plun
disbel
perce
battery
incident
comedic
teamplay
emper
daylight
locally
mwo
catches
summed
recognized
experimenting
mouths
ganon
embrace
montreal
rooftops
juggern
nexus
families
butthurt
##fr
animus
wallets
basicly
climate
thorough
reducing
maintains
displays
disappears
horrors
discounted
terminals
saber
scavenge
rabbids
suprised
technological
mulitplayer
steampunk
eld
jill
sith
##ionage
shark
10th
topics
inclined
##rence
blacksmith
presenting
##planet
replen
budokai
geo
gwent
exhib
absorb
documents
recharge
bfbc2
geometry
zoomed
##ement
thx
mole
church
compass
interiors
straw
underworld
undercover
swallow
muscle
assured
espionage
ridge
passage
chooses
speedrun
intric
suggests
nuances
spanish
operators
awareness
##hearted
revenue
ryder
jerky
tailored
slew
multiplier
surfaces
firmly
dd
jim
lair
p4
##cles
##woman
fork
##anto
pls
modeling
beforehand
article
copying
basement
trait
internal
rifts
risky
catast
reloaded
ascension
ios
ness
tm
##busters
##wol
ist
delt
abundant
scales
gud
##liest
##ierd
transformed
landed
sora
##guard
judgment
dmc3
prevented
horizont
psycho
3000
captains
settlers
skulls
crippling
smell
distribution
cockpit
persever
inputs
unreliable
aerial
dile
hong
yield
##fu
wastes
coz
##aren
agency
##achu
acad
acrob
handsome
itemization
##bbling
patron
arrives
centre
suspicious
influences
integral
hallways
compensation
tossed
ufo
australia
darth
interpretation
unreasonable
becuase
gest
jon
gamety
##aser
reuse
anc
gram
grunts
flowers
setups
instanced
touchscreen
lowering
wisely
formulaic
shopping
debate
translated
soma
coinc
vaas
catastroph
eidos
jazz
##200
##то
youth
alloc
##lolo
resume
pudd
midway
practical
gathered
germans
dino
overhead
recreation
parrying
imperfect
impeccable
iq
tapping
##ws
outta
compilation
dismember
brood
heros
invade
rediculous
mattered
gladi
travels
undis
skinned
ffxv
losers
january
disadvantages
hazards
comprehend
symphony
archaic
dj
f3
jav
stakes
can´t
unli
bricks
killers
changer
moneys
despair
conclus
bullsh
circuit
anticipating
regenerating
zeros
xb1
technologies
widescreen
italian
rollercoaster
cass
dashing
fart
lynch
mii
rh
reim
extern
shuff
mexic
overt
##ander
shootouts
##died
dai
cdpr
meaty
captivated
june
shrine
depressed
stacking
antagonists
leaning
grafics
takedowns
ought
intimidating
hampered
lon
mv
sons
votes
yarn
yup
##diment
waster
trump
##emic
interior
##spond
inco
shortest
fullest
attackers
reads
grounds
impossi
bandit
bloated
gigs
conflicts
cros
holmes
reliance
possession
pikachu
renders
tabletop
africa
atelier
tempted
elegant
rmah
bw
nd
pip
wil
♥♥♥
hail
notion
unen
overdrive
arse
cramped
knee
strive
flipping
secure
favors
believing
darkest
breed
armageddon
bothering
preferences
directx
bleed
escal
localization
lovingly
incomp
1996
cranny
discourage
bolts
hitch
lou
vet
beer
rever
reject
##ila
##abs
disrupt
indiv
reluct
constrain
marketplace
1942
daniel
##omancer
presum
dumped
senseless
acknowled
eggman
refinement
seperate
glimpse
disorient
disbelief
unlikable
fn
pall
tube
uss
##iased
moj
pole
intertw
bob
drill
mechanisms
monop
recommending
stylus
producer
intrusive
arrival
camo
highlighted
horrendously
exaggerating
reskinned
pausing
pauses
disapointing
jail
nud
samp
wound
##nies
##pal
##powers
##mination
ampl
prepar
print
arenanet
retrib
epicness
forwards
assassinate
burden
ffs
botched
blob
continuity
deleting
unbiased
takedown
correspond
eagle
whiners
cg
fand
##yard
##ione
seld
slave
warl
eachother
ruby
smoking
landmarks
ff13
suggestions
questioning
illustr
referring
professor
catwoman
cultural
cracked
gloomy
delicious
expertly
embarrassment
eliminated
stadiums
martial
scientist
whistles
grateful
temples
finesse
eshop
f4
reception
charts
allied
lod
overrun
scifi
arrest
bliss
agile
realization
robo
modules
modification
singing
joins
beautifull
artistically
##take
lootbox
cores
1200
aims
conversion
1440
operate
emphasize
shelter
vista
steroids
dilemm
retribution
bunk
git
wierd
##45
##ini
carrier
visibility
elit
esport
heres
regrets
postal
morally
protecting
obtaining
gyro
liberation
vampires
compatibility
elephant
gordon
seldom
pic
tam
wid
##pes
##atley
beth
lips
exited
outrun
boil
campy
emulate
edward
directional
approached
initi
sequal
flashpoint
threatening
candle
lazily
skirmishes
venge
xbone
cabin
salvage
ropes
##vas
##number
##onia
##ches
chatter
spine
prolong
scott
acid
swat
articles
skyland
parable
counted
thankful
appearances
optimistic
trails
consumables
succes
##thearted
blinded
gloss
threats
pools
previews
unavoid
sprinkled
assortment
unoptim
31
bri
baker
gn
##iage
bearing
##adable
##chi
##igo
unjust
funky
overarch
##ichi
##joyable
knives
variable
plotline
informed
begg
spoils
learnt
respectively
sprite
evolutions
relaxed
romantic
president
embar
pursue
journalists
inconsistencies
relentless
notorious
sherlock
emperor
external
porn
voted
##gor
##ctu
fears
impre
agility
sak
sketch
wary
untouch
regain
raccoon
restarted
grindfest
blacklist
august
greeted
reminding
robin
##bris
hurting
130
officers
##ubers
##hhh
attraction
billions
bastards
##5555
chemistry
inexperi
comrades
brazil
05
aly
mow
yok
##oto
fract
admin
downed
transistor
revived
morgan
meantime
responsibility
processing
distractions
psychopath
authors
extensively
compliments
flooded
##uuuuuuuu
chamber
lighter
retrieve
sacrificing
ambiguous
undeser
simpsons
overarching
##mate
##wed
##x10
twel
obt
fanservice
##ships
finishes
specials
learns
achieves
silently
piran
repetitious
suspend
alternatives
revealing
recycle
festival
regenerate
dreamed
lighthearted
compromise
fpss
cynical
abstract
700
qb
##reading
littlebig
wrc
wraps
carr
fallouts
discip
##blue
stunt
smashed
ninj
bowl
butterf
cautious
reserved
cloak
incapable
epitome
chicago
delta
crosso
46
mma
ruth
tame
##iy
##cis
##lists
##fs
inherent
enfor
atom
outnumber
boston
##osing
belive
refill
colony
marking
flatout
boosters
perspectives
foliage
revisiting
ignorance
##v2
##lig
alarm
slack
underwhelmed
rug
begun
woke
dumbest
exploited
execut
sorcer
demographic
##ooka
sentiment
1997
jumpscare
pales
stomp
bg2
conventional
mimic
unlucky
##heartedly
begs
##igue
overwhel
##acters
##acting
seas
##osuit
mayor
##olic
seeming
damaging
insur
finely
antic
norse
duh
destructive
juven
scroller
definetely
vendors
echoes
pearl
kuni
bent
fs
pyr
wvw
##v4
##year
##onauts
##level
##otics
beac
rex
washing
modeled
battletech
smiling
indul
larry
##mania
digress
spinoff
historic
gratifying
sidekick
jacob
##onymous
littlebigplanet
8th
c4
kanto
##son
##eded
##asco
reborn
proc
fez
dism
terra
##awk
elites
hitler
survived
marcus
heartbreaking
painkill
cashgrab
awkwardly
speechless
policies
touted
caval
unavoidable
caters
mb
sane
tbs
##park
##fa
##ancy
oft
##arming
##acher
##aders
liz
output
chars
clunk
afk
endurance
cert
requests
##phead
behem
##aha
demol
##connect
squadmates
flashback
brightness
fuzz
inexplic
manipulation
flamethrower
66
##inge
##str
##ira
willi
advers
loops
crank
knif
skater
##boss
superpowers
invul
zombi
exploiting
household
simplest
scrapped
functioning
professions
tackles
1995
attracted
reflected
cuphead
responding
isolated
barbarian
synchron
arrogant
mesmerizing
amusement
inexplicably
jar
jugg
osc
serving
brig
rightfully
psx
shortage
subtract
marriage
##archy
commanders
bombed
fleets
experimental
panel
panzer
dumpster
vendor
instruments
portraits
warrants
napole
lesb
henry
skeletons
alyx
kai
lunch
##aired
##hd
rewr
##rock
hasnt
##uries
whichever
bron
modest
cream
advances
hung
explorable
assassinations
regretted
mgs2
explanations
emerald
await
electricity
sanctum
tolki
twelve
behemoth
4gb
999
rape
tatt
vin
vic
##rates
tha
chart
frick
grin
abused
101
peaks
blog
skippable
##aware
##kyo
crypt
marry
moveset
burnt
respected
radical
hypo
fiasco
unsett
dmc4
arguments
ineffect
deliberate
coordination
phrases
monetization
extremly
ragdoll
riveting
damp
##gies
dosent
union
##urring
prev
differentiate
highs
guid
showdown
innovating
ultima
nuanced
virtua
frequency
reduces
unexpectedly
robbing
scouting
juvenile
hides
krypt
pizz
thou
topped
##ann
##ador
mako
funcom
preface
plz
##irect
smt
monk
##forming
totaly
pricey
seriousness
wonderfull
protoc
unnot
respawns
leaderboard
discussed
twitchy
tailor
students
remixes
tec
##cut
##ota
##iless
unsc
heals
obscen
definitly
invaded
kevin
counterstrike
codex
privile
mike
rampage
katana
scarier
incarnation
modifiers
slippery
az
aion
nunch
wat
yard
##fing
atre
conj
unseen
novice
clap
hardened
bol
resets
20th
waist
remorse
wholeheartedly
married
heavier
garret
presses
gtav
bombers
1980
tags
addressing
representative
##breaker
corporations
chills
accepting
bomberman
anticlim
tattoo
ais
dq
faint
mcc
##gate
##ae
##card
##eration
trips
charms
battleborn
firewatch
shaders
productions
werent
franklin
reflex
horizons
raped
ryu
recruiting
enthusiasm
disguised
crosshair
unenjoyable
obtuse
fy
ore
##give
##wide
##jud
relay
##omorph
ench
##imax
##aby
werewol
stuffed
formations
predeter
##aneous
encountering
sands
planetary
funding
reflections
dinner
palace
stretches
clueless
pandering
maneuvers
nitpicking
crouching
enthralled
vacation
lifespan
exquisite
vengeance
piranha
hq
##kins
##inn
##ching
liqu
nept
##ifty
##aste
seed
drac
drum
wright
freaks
indicate
passages
promoted
remembers
strafe
layton
dissatisf
brutality
hosting
insulted
arche
politically
irritated
condem
cracks
ashes
androids
blazblue
incompetence
##engine
tolkien
bass
cad
trench
##bet
##asis
##erson
##igm
entity
predatory
existant
##iano
noteworthy
hotel
catalog
mentions
describing
terminal
districts
preparation
unsettling
51
gp
tokyo
##arious
becouse
##adeath
##azard
disast
ski
twd
flashing
defen
openworld
handhold
cursed
grinds
divide
##ipper
accommod
braindead
bandai
cataly
cracking
murdering
ensl
investigating
orchestral
santos
wrenching
uniform
umbre
44
bid
font
hut
##18
##isy
isle
whims
wasd
everquest
compuls
downv
repack
glow
gunner
remn
eleven
##ialy
inviting
pickups
promotes
ignores
goalie
pirated
karts
galaxies
maximize
merciless
rotating
revolve
colossal
declare
io
kb
ker
lake
sill
wore
##24
##mets
nodes
crunch
differs
##pol
developments
halt
gunfight
voiceovers
chees
narratives
imagining
scram
140
youtu
lux
priorit
disgraceful
excessively
proportions
academy
ancest
reimag
atreus
cp
pione
vip
##gard
##build
##ita
shirt
backing
espec
homes
criticizing
impacts
dmg
demonic
george
recreated
substantially
stumbled
dificult
neglected
inherently
fueled
napoleon
predetermined
tc
##gamer
shred
alm
dels
debris
##ached
immune
fairness
specialization
costum
wildstar
##wered
palad
catering
sacrifices
busted
##walker
stardew
blueprints
4v4
78
94
bans
fisher
gab
##lk
forts
mop
##orted
##spe
hobby
industr
biome
ridic
vsync
digit
194
rotten
007
holot
rtx
comprehensive
sarcasm
owl
sacrificed
wireless
##yyyyyyyyyyyyyyyyyyyyyyyyyyyyyyyy
shoehor
husband
downtime
contemporary
incoherent
86
jaded
nms
##mins
convert
nods
quid
opus
knees
##achi
batter
wario
understands
cappy
requested
##umbling
finishers
forming
province
efficiently
traveler
spotting
merge
sensible
affinity
blending
completionists
recognizable
ashley
reacts
numbingly
saturday
lends
skylanders
protocol
##dly
##fx
##icy
##icion
rethink
sting
shifts
strand
personas
promotion
boobs
layered
banding
dota2
magnum
reporting
sidesc
analysis
hazard
outdoor
allev
pathfinding
kirkwall
guidance
5d
dud
kung
null
raving
##cap
##tv
chips
suite
unans
amy
conscious
monkeys
egreg
hostage
minimalist
loser
wrestlers
renew
absorbed
cheek
credibility
bunny
cavalry
980
serial
##idal
exem
fend
reper
jog
masteries
infr
locust
snoo
ww1
mounted
researching
blended
minimalistic
magnitude
rankings
stacks
stacked
bundled
unusable
dexter
zenimax
composer
nomad
cartridge
presumably
jose
lion
lich
pong
x1
##lop
##icit
##ooks
canada
shakes
shaky
abound
upsc
prost
scour
contend
desolate
tex
agreed
addons
prow
finicky
sinister
payment
courage
produces
pathways
connects
costing
tonight
selfish
archery
dreaded
prequels
hesitation
culmination
crossover
industries
daring
l1
pounds
rly
sig
##ien
##bra
##bows
##ede
##ghter
exod
##azaki
##osexual
lineup
excru
breeding
diver
spends
majest
engineers
promot
dupl
sentences
pixar
bumps
containers
assistance
##dogs
application
fmv
nitpicks
mmr
polygons
constraints
catalyst
umbrella
unanswered
lma
mall
rou
wifi
##vy
##km
##writ
##itating
shower
outbreak
scru
desk
interconnect
fanatics
##cedented
monolog
messes
##ciating
faulty
penetr
masc
inept
backstab
acquiring
describes
paul
discouraged
goalkeepers
noctis
conclusions
gated
laps
##encer
##asion
##ghan
##iever
quint
##umin
bats
skys
twins
unfriend
##tron
specializations
warfighter
civs
civ5
competitively
cartoons
savage
cycles
definitively
overhauled
template
instalments
i´ve
celeste
apologize
unprecedented
steadily
1440p
dracula
67
gts
jade
kil
##nie
##pher
##upy
##fo
org
alco
##opping
thereof
groo
unr
similiar
worldwide
camper
titled
openly
believes
confess
bully
lenght
defeats
inspect
civilian
piloting
employee
territories
transportation
gratification
##walk
adventurous
anxiety
ffvii
disease
disastrous
excruciating
01
04
kz
pipes
##col
inade
##ications
lever
overcoming
ende
disple
recons
underest
skylines
magick
simulated
dreamfall
dogfight
centric
flagship
snowboarding
debacle
boomer
necr
unexplained
berser
delsin
alcohol
inadequ
68
mph
pony
piano
ros
wt
##17
##ра
thom
gameworld
##iris
altering
##active
knocks
bos
recap
##fulfill
opted
happend
starwars
randoms
texts
reader
##cience
smoothest
##bbles
executing
dribbling
harass
apology
unsur
sixty
semblance
mkx
contributes
fundamentals
eliminating
retaining
##ifiable
miyazaki
papers
rach
##yu
##alib
shaft
grants
grotes
noone
multit
amazes
##shock
negot
occupy
publishing
astral
boarding
atrocity
colossi
dislikes
orchestrated
reckoning
stroke
##ausible
moaning
woefully
transparent
impossibly
brighter
exodus
unfriendly
aur
fists
ipad
pap
rider
ticks
tape
£20
##rays
##rising
toon
italy
##anes
inception
steri
neph
unfulfill
howard
##usions
experiance
bath
flames
basing
guer
##akers
##ensed
jodie
cursing
discs
locate
confron
marathon
postgame
machin
replaces
victims
extends
ssb
subscrib
lantern
streamlining
resemblance
diplomatic
summoning
rabbit
settled
outweighs
amateurish
blessing
kait
annihilation
communicating
reeks
goblins
necromorphs
9s
binary
nate
rises
vu
£40
theories
##erable
##this
cany
fanf
lifelike
replayab
specialize
speeding
framework
foresee
weirdly
##cessible
##portant
suspension
tricked
crawlers
ghouls
symbo
incorporates
sfx
stabbing
osiris
pawns
melodr
annihil
permadeath
coalition
monopoly
03
83
axes
rs
tou
##enter
you´
ini
inov
insect
worm
##urb
cries
##umme
farms
undert
refusing
morph
tightly
speakers
loosely
fulfilled
vaguely
suprise
shinob
slaughtered
fathom
fyi
fades
hz
l2
sire
tant
##ville
##crow
##hoot
##ayers
poll
blaster
questline
definatly
england
booster
demise
welcoming
streams
globe
censored
mercs
troopers
##anche
ghz
constructive
funnier
##rehensible
observe
fragile
##oooooooooooooooo
injured
slowdowns
rusty
sanctuary
metaphor
unoptimized
aids
fences
nays
naming
##v3
##words
##lements
deple
una
feats
seal
crave
brows
steph
emulator
remarks
cod2
spelling
kiddies
landmark
stunts
spoke
statements
inspire
hotkeys
bottles
sleeper
zooming
tester
pacific
nanosuit
conventions
instrument
conserv
slaughtering
freeman
theatre
dystopian
sabotage
ussr
lmao
pgi
raining
viii
##gl
##gaming
##uk
##human
##fined
playin
anet
ascend
shru
##irts
sunday
awfull
wargame
somethings
francis
daytime
tali
##rupting
dragonball
trope
tonnes
silky
praises
boosted
astron
mgs3
squares
scarecrow
uncont
reacting
dishonest
utilizes
languages
delighted
2k19
renown
accompany
sr3
unsatisfied
regeneration
exhausting
inflated
assessment
beggining
inexperienced
grotesque
2gb
baz
slo
wed
##sight
##pour
##77
formed
##eces
veh
blues
brag
warner
rightly
hubs
similarity
airport
council
arrange
claire
youtubers
frog
cleaning
denied
upsetting
cruise
lanes
pandaria
kh3
lifted
contempl
melanch
sapph
sceptical
ruthless
jumpscares
bronze
apt
brib
##a´t
##bour
thps
storywise
expend
##istration
sewers
brow
##ailing
workout
skillful
disappointingly
2k5
undo
indefin
##ructure
benefited
backstories
embarrassed
butcher
sweeping
battlegrounds
lockpicking
shoehorned
symbols
72
dwell
iphone
js
uru
v2
xii
£50
##upp
##orney
canad
##ulus
##impl
spons
overlay
scopes
arth
gameplays
braking
werehog
slicing
swamp
helmets
##mitted
medical
satire
neglig
corvo
follower
tracker
ryan
unimportant
kinks
baffled
nicke
mtg
wotlk
handicap
vomit
gladiator
overwhelm
majestic
2v2
barn
cq
cere
fuse
ix
piles
tilt
vain
##cies
##w2
##fold
dol
##iga
##acking
sideways
herbs
okami
phones
valent
revival
coverage
posters
peripher
matt
remasters
richer
reduction
cleaner
labeled
repairing
transformation
chambers
garrus
mitig
replenish
infrast
fow
harr
tp
waters
yooka
##oss
##ittle
youve
whore
haul
anxious
enn
##igor
meal
ponder
compact
favorable
##shots
collections
cope
maxing
arcad
turtles
creatively
counteract
responsiveness
radiation
falsely
reliant
obsession
reinforcements
unappe
bruce
horizontal
endeav
ctf
dumber
ht
niko
##bind
##vee
##vell
##alf
##alds
##eting
algor
abusing
amid
goons
1070
sealed
##atherine
depiction
snatch
transcend
painst
commanding
familiarity
##certain
convoy
ceo
babys
females
voicing
dominating
343i
taxi
chuckle
oxy
sustain
massacre
ineffective
naysayers
mam
misf
pv
sate
##aay
##cat
##ym
##mic
unhe
##rians
interestingly
conscience
mete
varieties
invading
eden
packaged
specialized
aug
reviving
troy
directing
cinemato
pathing
intensely
laylee
torrent
tripwire
fatigue
centers
tribe
scammed
ensures
pitching
resembling
portrayal
smackdown
scorp
unrelated
magicka
sapphire
unappealing
algorith
43
gum
##maker
stall
##idays
sux
suda
fees
warband
underm
hug
majorly
dunk
activation
##mmy
commonly
1600
radius
pirating
murray
overlord
recording
orientated
sharper
exceedingly
##locked
outsour
tsw
bothersome
multiplayers
avalanche
nudity
skyscr
painstaking
ding
hive
sau
##vol
##cop
##obo
thug
##iser
##anas
inap
rej
reall
##chu
##illed
meme
loath
composition
prejud
scoping
instruction
halos
elim
builders
careers
techland
edited
imagery
respec
utility
sufficiently
preparing
facet
operating
halls
sieges
responds
vibes
inaccessible
backdrops
overstay
##a¥a¥a¥a¥
vessel
imprecise
egregious
icar
kitch
##iary
##bumps
##ht
moody
##ido
doable
deaf
spac
actualy
claw
bathroom
decap
setp
channels
consumed
jogo
##weight
listing
equals
dubbed
significance
selections
accomplishing
scratches
maintained
qualify
incorporating
kara
vacu
disapointment
##secut
atlas
butterfly
pizza
reconsider
guerilla
icarus
93
cable
dazz
kam
lining
sed
tib
vap
##mach
##wl
##19
##ottle
sue
trite
actress
imb
waypoint
##ailable
attorney
##aka
puke
effectiveness
collisions
restaur
satan
godlike
monstros
literature
##aaay
cheaply
climactic
mutiplayer
##graphics
oversimpl
methodical
fondly
flavour
vigil
clutter
verticality
spears
sotn
##8888888888888888
warlords
demolition
##gon
exotics
##eee
outland
##urable
prox
everyones
downer
indy
attacker
##umped
100s
schem
balloon
signal
explodes
splatter
admitted
pengu
projectile
streaming
retrospect
restriction
bumped
trooper
depression
hinders
21st
wrecked
##propri
angels
victorian
liquid
87
mashed
xx
x2
##vations
reun
##ete
##chief
commod
orig
envelop
dew
spans
overhe
arty
downpour
rod
attain
##ola
rudiment
sadistic
engineering
advised
firepower
tread
narrated
milked
downloads
conquering
firefly
holidays
quietly
catered
kenway
inconvenient
minerals
##function
parachute
ninjas
bts
cmon
dab
p3
vets
vents
##das
##hu
inane
liken
enables
uncertain
adored
badge
perpet
dra
bashed
##bob
chew
deserts
watchdogs
stealthily
laughter
regarded
patr
navy
radically
denomin
voll
##70k
unpro
cringy
authenticity
diamonds
suprisingly
onsl
##99999999999999999999999999999999
painkiller
enslaved
infrastructure
dots
larian
mowing
##gie
##cal
##town
##mart
##inal
##anks
soothing
comings
orgin
deja
unite
nolan
overboard
ada
sel
brakes
variant
gta3
pathetically
##working
bfa
poster
idle
tenchu
sorrow
spotlight
crosses
mystical
##gameplay
rebind
pads
departments
psychic
occurrence
countryside
bumping
jerks
ellen
robbery
ammount
taxing
exhausted
wiping
ecst
##bbels
aggro
starfox
merchants
juggernaut
elimination
ao
fierce
gifts
jens
##lest
##lings
orion
gosh
##ando
hehe
backup
strat
warlock
ac1
guiding
teaming
##athers
divisive
gunsling
cryengine
arcades
simulate
simulations
countering
premier
refreshingly
profession
cease
romances
flew
magnet
omn
debuff
nitro
rescuing
gratuit
virgin
2600
praying
adapting
##avery
untouched
archeage
inappropri
onslaught
iam
lows
m4
yr
по
##ei
##rance
##vance
rework
stances
converted
meld
unaware
dispar
agony
driv
skim
stubb
spel
restored
movesets
unremark
ape
microphone
apartment
terrified
dreaming
bands
adjustment
wrecking
uncanny
hinted
recordings
funds
2k14
tolerance
stomping
stereotype
senua
hmmm
expeditions
stagnant
netherreal
ctrl
vacuum
denominator
56
bane
dizz
eula
nad
nur
tying
vid
viv
##rition
##rained
##han
##free
##asa
playlists
anom
frust
shm
##amps
justifies
graff
##ouses
genoc
##quer
reconnect
recurring
flips
keepers
##neys
wod
collective
rangers
riders
subway
dieing
poses
midst
boyfriend
ghostbusters
tempo
beneficial
troop
cybor
bills
christian
conveniently
wizards
strongholds
shortcut
ingenuity
augmentations
adopt
rooftop
evaluate
confrontation
prophec
saddened
handholding
52
dor
fh
lick
pm
r6
##nc
shades
measures
##ected
grating
exponent
donate
##usk
##issance
##sphere
perfecting
freelan
metag
##ruary
readily
cheapest
aimbot
##iances
tenka
drivel
banal
brainw
experts
statue
referred
insults
enhancing
sleek
linux
minuses
eaten
350
nerfs
pacif
medicine
adequately
hipster
peek
toddlers
unavailable
redesigned
pedestrians
february
russophobia
fantasies
oscar
lesbian
sterile
unremarkable
dale
hdd
mec
pgr
rc
##ender
##olo
##verns
waypoints
pepp
taunts
interst
finaly
reforge
collabor
1500
##blings
legions
ahem
periodically
monotone
altough
recreating
srpg
proportion
goosebumps
archetypes
prowess
tenkaichi
780
ether
hiring
jung
km
ole
omin
pec
wether
yah
##rie
##bots
##wre
##ller
##anges
##etly
shant
mazes
gripped
unoff
##mos
flour
hitbox
inflict
cameos
readers
speedy
doubles
winded
mutli
domain
revolver
recovery
ftw
wisps
australian
rumors
credible
interfere
lmg
reluctant
yoko
##x1080
shinobi
exponentially
darts
ecc
muted
sib
##gam
##iable
##inarily
molot
unused
plains
blas
interfer
##locks
remap
regional
deadline
thirdly
commented
irony
pissing
accomplishes
dishe
telegraph
licence
chopping
emblems
halluc
gangster
johns
heavens
##ahahahah
prettiest
manufactur
invulnerable
unnoticed
uncontroll
oxygen
kitchen
rudimentary
cue
cari
eats
fuck
gust
honey
ion
juggle
ny
pon
tee
tft
zoo
##gues
##ris
##lon
##bos
##ml
##atron
whoo
##alid
grunt
fever
blaming
smgs
embo
customisable
destined
marston
deliveries
##dddd
sixth
levelled
dx9
storms
concentration
##hhhhhhhh
rendition
diferent
disrespectful
tangible
empathy
58
92
dug
jake
pige
rit
tat
##link
##uition
##unning
##unia
overfl
clown
##issions
##arium
reprodu
##awful
##getic
clem
bios
understandably
heroine
parks
revital
joyful
mp3
revolutionized
nuance
sensor
programs
conquered
icewind
cooperate
electr
profitable
concentrated
dreary
culmin
marginally
stumbling
accumulate
gentlemen
outnumbered
fuzzy
privilege
stephen
stubborn
catherine
qol
tint
wits
xiv
##iating
##1000
theore
beams
noticable
##iden
chock
shattering
dope
spins
scand
feared
crpgs
##izer
steve
didn´t
founders
foundations
##udging
upgradable
stupidest
explores
explorers
walkers
verge
facilities
europa
creeps
redeemed
investigations
analogue
cranked
mtx
cooldowns
saddens
lurking
javelin
pyram
juggling
accommodate
dexterity
joseph
indefinitely
aper
dent
fet
umm
##isations
##vey
sod
soak
shouts
conver
goe
throttle
impr
agon
killc
##othe
carav
##plex
##trap
damages
subpl
##placed
physic
sectors
strategize
koei
minigun
camou
homosexual
ript
crops
handedly
unwanted
flickering
grainy
hovering
obligatory
garrison
barrage
fiddly
meticulously
incomprehensible
undeserved
holotapes
molotov
dates
ira
nil
nord
nifty
uav
wig
##mph
##itech
req
re7
that´s
chim
##cell
upped
expir
outsh
outcast
spies
spreading
bytes
recieved
flak
shootout
inser
##umbra
hella
grinder
duties
smoothness
activating
hyping
morals
erased
machina
practicing
mystic
maddening
##immer
truthfully
cups
2000s
oversight
infection
somthing
avatars
adopted
undeniable
crammed
monumental
comprised
jensen
ominous
theoret
cubes
nest
pane
##iates
##100
##rection
whirl
liars
churn
canvas
##irable
wep
##essional
arpgs
newsp
teaser
##quar
surre
carm
elena
payback
regen
enters
specialists
purchas
godfather
paras
efficiency
breakthrough
eyed
doubled
patiently
kickass
harbor
toughest
dubbing
radiant
membership
separates
padded
mutated
recognise
desperation
reinfor
subtlety
mythic
bonds
prompted
geek
shaping
lucasarts
african
datab
dnf
washington
exempl
gunslinger
camoufl
bm
barring
heel
ips
piec
rico
##onic
alittle
##amax
abusive
spout
afghan
deflect
##felt
infest
##icular
powerfull
listens
imported
homework
impressively
sandw
flashes
earthbound
sensational
blurred
affairs
motorstorm
federation
havn
convenience
invasions
inconsequ
goggles
grammar
ferr
gat
mary
rav
vicious
##tales
##3d
##isc
chival
someones
meier
drool
##she
##atsu
steamworld
blasted
burns
irl
gt6
speaker
synthes
substitute
motivating
mk9
harshly
xenomorph
ensuring
il2
reckon
flares
detrimental
synergy
neptunia
css
cows
lens
nagging
wager
##bf
##math
##но
##zo
##era
##rop
chug
##amatic
trau
funner
mudd
imitation
manif
looses
##umn
finder
attrition
insuff
headaches
##ounced
coloured
provin
distress
##hole
##ibilities
schools
copyright
logically
dribble
hoops
sugar
squadron
cartel
suprem
144
situational
addresses
desires
coh2
tolerated
macro
possessed
ranting
slender
beeing
potatoes
portrait
goblin
nsmb
clarify
elders
initiative
##building
##alibur
negligible
disheart
caribbe
bark
cory
vangu
wd
##auri
##dge
##22
stake
##seat
docking
mew
delus
unbalance
overb
##ishly
##loc
drums
##berus
handgun
invaders
password
submar
##umbled
##nod
crapp
interacts
lagged
parame
arcan
equipping
viewpoint
##balances
merged
nukes
virtue
sentine
murders
pinpoint
rehashing
caveat
crop
july
universally
unintention
exerc
walkthroughs
soooooo
calculated
versatility
interfaces
plunge
pier
uc
£10
##bri
##ulf
bubs
##urg
ample
clocking
whos
brill
partial
gamma
##scape
elex
talos
woven
colin
heartfelt
penumbra
trader
plainly
programmer
vanqu
erratic
psyched
occurring
comfortably
incentives
enhancement
mesa
throats
##llllllll
kiw
brimming
tidegive
assasins
vegetation
anticlimactic
interconnected
johnson
ritual
iraq
##quarters
02
cunning
dwind
rib
##lr
##pm
##puted
##isk
socks
##etics
liver
chare
alliances
sully
wors
memes
geth
trio
##played
##ctory
overal
managers
doesn´t
relevance
psone
cutesy
transfers
ache
motive
logitech
appease
swordplay
screws
cleaned
conduct
condensed
railro
rigged
determines
nerfing
aweful
participating
vigor
emails
infiltration
whistle
measly
gametypes
shuffle
pallet
repercuss
browsing
unprof
gratuitous
goebbels
gel
jig
p5
sier
##cters
##uvo
##inch
##llo
##enger
##lets
soe
como
orbit
##amari
##andra
##istan
##oying
##igned
aftermath
pron
sinks
swed
swarms
generators
careless
fixable
evading
stuffs
powerhouse
submission
nameless
faceless
greece
emotes
barley
approval
replicate
impacted
scraps
spanning
rebu
centauri
professionals
choppers
anticipate
fortunate
buffed
loneliness
contributing
hijack
enthusiastic
capitalize
leadership
borrowing
degrad
boycot
extraction
gazillion
manhatt
##polis
inadequate
thomas
satell
freelancer
inconsequential
caribbean
3x
3v3
6gb
cors
ig
jeep
pt
ress
##lit
##mill
stair
overtime
arise
##usable
peers
blight
perf
incess
slinging
roar
##ffff
##ormal
soulc
retire
dontnod
eventual
headquarters
arkane
escapes
purposefully
rainy
statues
repetive
masquer
subjects
dualshock
motorbi
derby
sr2
bindings
uncovering
levi
diminished
chocobo
coordinate
uniforms
canadian
surrender
chivalry
manhattan
84
82
hark
nay
pie
yrs
##gence
##cd
##wo
##ро
bele
reusing
reiter
mos
##roy
##ulates
conced
grah
spor
pointer
amused
plod
plausible
##abby
dismal
module
waking
generating
fantast
invalid
discern
ohh
pluses
strips
tenth
dragoon
parker
twisting
ramming
troubled
victories
healers
junkie
##streaks
criminally
universes
mileage
slamming
scummy
##ssssssss
challange
examine
niggles
mockery
mikami
villians
conservative
sandwich
89
ay
doo
jay
ku
nat
riff
##tion
##but
##bee
toby
##itable
befriend
whopping
anch
shi
##uled
consecut
worship
tripp
expos
claws
pric
resi
monitors
visions
untr
starring
giver
broader
gearing
courier
canned
##ivaled
##ronts
arcane
keybind
accessed
morr
striker
criticise
breathes
prefered
hostages
conduit
psychonauts
surpassing
ffxi
rivers
trends
megami
johnny
accompanying
katie
katamari
tossing
snappy
paintings
motorcycles
expedition
eevee
diminish
undisputed
elitist
unrivaled
penguin
metagame
dart
lt
pant
parr
sans
tty
##aith
##case
##bast
##anth
##story
stir
##unce
frictional
##arez
realising
drinks
slate
warth
waaay
##likes
carter
voiceover
hateful
modernized
wowed
menace
rocked
heartwar
heartbeat
##mbling
clearer
lengths
emptiness
drawings
repeatable
remastering
unde
appealed
creeping
restarts
savior
announcer
cultures
denuvo
bumper
mythos
hindrance
canceled
discussing
2k16
university
remixed
chickens
skateboarding
barbarians
nano
grossly
audacity
incarnations
mushrooms
measured
hzd
inappropriate
unofficial
bubsy
cz
onward
wher
playful
anonymous
shank
dosen
mak
justification
##imens
##igent
##igans
grades
bure
characteristic
graphs
##aze
waaaay
behaves
locke
remedied
bfg
strafing
crafts
gona
256
warden
##crap
kh2
analyze
commendable
fc4
audit
ctd
neighbors
claymore
foward
setpieces
netherrealm
pecul
panels
heartwarming
dag
wag
tooth
##omp
myplayer
unne
outset
mum
pov
prome
feast
fells
crims
pend
afar
disabling
bohem
impresses
encyc
textured
revised
squand
mote
figur
puns
dodges
bombard
trusty
commenting
influential
linking
contributed
bursting
rena
elevated
reserve
celebration
paladin
pacifist
aperture
41
pb
wagon
##vals
##bro
##bear
##horn
##inine
##inters
bew
sock
anal
encom
deer
ploth
##ignant
implies
##losed
multipl
differing
nevermind
minis
acces
cerberus
frustrates
priceless
##phy
godly
fireballs
##arsis
nightfall
garg
agreement
dedicate
searched
closet
misgu
undet
##ika
chao
sunny
hairs
ownership
emerge
licensing
priest
pillar
cringeworthy
baffles
suicidal
infiltrate
assasin
flushed
pagan
intricacies
bunker
esports
zombiu
##wreck
blasph
sporad
encyclop
df
iwn
lamp
mast
pumme
wounded
xy
£30
stamp
monday
##app
##cel
##ulas
trinity
reclaim
strain
slaves
modelling
flims
designated
wrist
solves
##iah
purists
envior
retired
resting
daed
##mmmm
turf
residents
dedu
euph
spectacularly
fauna
representing
1993
chatting
stationary
liberal
revolving
wrestle
proudly
relied
cybertron
harvesting
dressing
broadcast
principles
ukrain
##0000000000000000
##1000011
defects
sketchy
jungles
database
sierra
degradation
soulcalibur
bureau
unneeded
renaissance
ae
aj
ounce
rips
##v6
##kits
##ano
onwards
stored
forty
##opia
graces
seeks
thingy
blu
desing
sao
warped
highways
generates
racial
##usha
60€
loots
interacted
promoting
innovated
breakpoint
rushes
receiver
fluidly
banks
networking
consisted
circuits
hosts
redux
greenbri
skewed
weekends
dares
laziest
volumes
subtly
recomended
martin
racking
##eeeeeeeeeeeeeeee
pathfinder
pouring
##6666666666666666
puddle
garrett
whimsical
cinematography
volley
provinces
vanguard
crimson
encompass
iwnet
2h
74
bion
fft
pp
vile
##vis
##cup
##hawk
##iti
stain
habits
##rod
shipping
##antically
loz
overuse
quits
perma
modd
releg
smb
entice
superstars
variables
registration
starship
arcady
heartless
dumbass
preferably
crossfire
horseback
##vanias
vanish
liberating
adept
advertisements
escaped
korea
champs
stardock
jetpacks
knifing
snooze
genocide
160
77
aer
fiend
gs
rational
##hs
##jin
##atical
##esc
playt
##sell
##ados
##acked
unme
becas
baddie
##osis
runic
isn´t
smugg
fred
##trical
saturn
techs
satisfies
confer
ultr
decidedly
destroyer
initiate
ambitions
misplaced
##grams
spammed
spammers
uncons
motivate
volcan
integrate
cdpro
reflecting
xenos
repairs
translates
fucking
4000
tribal
promptly
downfalls
goddess
bravely
##roller
troublesome
barric
ogre
adventurer
polarizing
azeroth
gestures
rewrite
##between
scorpion
spelunky
mutliplayer
supremacy
kiwami
57
lined
pwn
##mi
##inate
##itt
beard
onim
##ala
asia
asinine
chin
uprising
expose
evenly
wholes
##assing
serge
particles
finisher
slapping
runners
deterior
variance
invites
sheet
fireteam
##worth
controllable
approve
idol
discoveries
misery
defended
koa
tanking
outdid
hosted
stressed
debt
gigant
juarez
outlook
eliminates
xenoverse
stalking
havnt
prisoners
extraordinarily
inches
staples
unimpressed
deemed
reappear
unconvent
dissappointed
overpowering
obscene
unheard
selves
unprofessional
6v6
dail
lest
piv
##ford
##rel
##ati
inbetween
revert
onscreen
anarchy
dolls
doses
tripe
bulls
upbeat
unner
##aux
bragging
realizes
##olar
handing
detached
superhuman
metall
regurg
diary
mickey
marau
dragonborn
greet
maturity
vram
knockoff
rocksmith
succeeding
labs
gloves
qualms
mortar
juice
##packs
##iciencies
medicore
nao
venom
dwarves
dangan
sympathy
educational
feminist
depicted
vikings
mojang
kaitlin
prophecy
greenbriar
density
mvp
pent
pans
##nar
##neck
##pace
##piece
##mies
shabby
##amber
##amoto
##ople
tron
amiga
heir
blamed
teacher
offender
guests
fanbo
questlines
difficultly
swapped
awesomely
##weet
##times
hoi
depr
solidly
lowers
deserted
majoras
devote
divisions
activison
eras
illness
sickening
adjustable
sexist
errands
publicity
ffxii
pitched
uninstalling
awaits
conveyed
levine
stumbles
craziness
shaq
stilted
wheatley
airplane
francisco
mamm
peculiar
onimusha
dangers
hatch
ky
ooo
s2
tug
varr
xi
##eur
##pin
##bag
##27
##lys
staling
chib
cans
enabling
spaced
betas
sewer
##usc
backer
twee
waif
consult
hoards
curb
##troo
evoke
givers
deviation
dealer
succession
trashed
strategical
closes
gt4
premade
ciri
facil
vanishing
falcon
guarding
1994
ocd
weighty
funded
csgo
nba2k
tensei
emotionless
palm
shepher
aggression
rescued
journals
robbers
screenshot
maneuvering
grafic
demonstrates
degrade
evaluation
##1111111111111111
deceptively
korok
perceived
tamriel
biomes
ecstatic
riptide
vanquish
becasue
jew
nomin
pors
rik
wp
##great
##ipt
##cter
##lam
##aton
beet
stur
##unken
chrome
dome
trully
trumps
##sof
backb
##quent
boon
skips
##ipedia
declass
biting
bitters
wraith
invited
despicable
autop
sorting
zeldas
availability
homecoming
splic
exclusivity
estate
dawnguard
subscribe
contextual
inquisitor
##vita
assignments
manipulating
spitting
superflu
demonstrated
subsequently
cortex
inconsistency
chemical
ruler
admirable
ita´s
mexican
♥♥♥♥
dilemma
sakurai
frickin
nickel
leviathan
unconventional
54
91
fck
fc2
mj
oops
rays
##hack
##atus
toll
forged
##etti
liar
liara
attend
gra
leak
##emies
bury
amped
goku
prefers
##oreal
overr
arte
ploy
rogues
titular
glue
deton
effected
etrian
medics
##ounce
cryb
marvell
squir
directors
spotty
veron
goalies
splitting
esta
murphy
fatality
obstruct
gow3
blaze
seattle
committing
hangs
ramped
rabid
evidently
distribute
instincts
##kkkk
rebuilding
inconvenience
chocolate
relentlessly
indoor
imperfections
intertwined
stranded
duplicate
bittersweet
caster
dl
dna
jab
lays
lgb
panda
roses
##ricting
##win
##ен
##ingers
##aro
##iciously
##stro
sharks
atv
suiko
trif
abortion
unat
unve
overcom
feud
prere
bo1
drains
usefull
mecha
musou
joint
emily
refining
behalf
snail
unfortunatly
physx
numbered
protoss
terran
irons
bombarded
ironman
militia
historia
denial
expressed
degener
panned
liberate
torches
deceived
outlaw
prisoner
unwilling
fragments
wikipedia
reigns
thermal
william
tecmo
canyon
peripheral
ferrari
flimsy
stalingrad
suikoden
dusk
glee
pga
rus
sss
wth
£3
£15
##good
##eral
toons
##anigans
##stood
##acame
myteam
abo
bubbles
spur
##text
partake
bobby
flora
swarmed
##rae
suppress
hobb
pickens
##shoot
pokeball
##umbles
discre
monstrous
evils
##ibli
bfv
unlikeable
journeys
pointlessly
revolutionize
operator
expressive
nooks
freaky
distinctly
teleportation
inexpl
conflicted
hanger
proceeded
renamed
prix
superheroes
indicates
studying
paused
confidently
spraying
##classes
melodramatic
shrug
arthas
valentine
plotholes
dailies
lgbt
hench
rr
tdu
##vil
##pay
##47
shifted
deacon
leather
overbl
heli
sc1
##uspect
##umi
peas
throught
simon
taxes
brands
robert
guacame
recommendations
caric
indiff
relieved
redbox
hellblade
cameo
facepal
costly
effortlessly
breakers
protest
taro
wolver
arguing
voip
plagues
seventh
2k18
gamefly
summoned
tyrant
prizes
beliefs
commercials
scientific
mimics
ditched
sympathetic
alleged
quicksave
saddest
freemium
overloaded
exept
razor
insurgency
luxury
nephew
cyborg
delusional
parameters
bohemia
63
fave
faded
mx
sb
##gia
##rise
##top
##ет
##oria
tommy
unad
charach
overated
scumb
interch
loveable
startup
2070
##uded
wonderland
nearing
weirdness
locker
oblivious
premature
kof
unsuspect
triggering
volition
assumes
ghibli
transformations
employed
stylistic
celebrate
tornado
patrols
configurations
resurrection
quicksc
tranqu
1920x1080
corresponding
remnant
silliness
necromancer
browse
orginal
superfluous
inexplicable
bould
cb
nih
rx
rar
rick
ting
£5
##fare
##ori
##anics
##aru
##otal
##idge
shatter
##ilot
hast
hash
##uron
poignant
thematic
awake
finn
recieve
##ipher
repaired
gambit
##dia
##bey
psvita
apples
recommendable
superc
##morable
envy
diaries
ridicul
##ocative
hellip
##ango
blasts
doom3
throwaway
filthy
comparatively
1800
streamers
priorities
consequently
pinch
railroad
experiments
guideline
responded
fascinated
wrestler
coward
outsider
darksp
darksouls
bounces
xenoge
unfolding
hiccup
prestig
##keep
accelerate
vocals
breadth
levolution
blessed
dictate
groan
hammers
airplanes
fnv
fandom
afghanistan
squandered
marvellous
guacamelee
jus
lament
##glass
##v5
##best
##metrical
##icule
##acion
##acular
shade
shiver
##aine
##ursor
heh
usb
taunt
implements
downward
##ailed
warhead
shortcoming
##lips
infre
slowest
collectable
##ortune
fireball
breakable
introductory
humanoid
personalization
counsel
rife
wwi
13th
calif
punched
oculus
disconnections
murderer
quirk
engagements
penalized
compensates
configure
manipulated
snapmap
injuries
wisp
spongebob
drowning
hahaha
cheerful
rugby
##leveled
oftent
digitally
restaurant
misguided
62
gifted
kyle
m16
pow
vag
##rously
##uate
##estruct
frantically
shear
dearly
poetic
thrive
pertain
##lsing
2080
classified
tittle
founder
biotic
edf
##arranted
##commend
distinction
##ronpa
traject
dealers
satisfyingly
writes
witches
foreshad
competitions
sporting
missteps
precursor
##offs
reloads
threatened
windowed
mercury
laden
pursuing
mythical
moderators
shenanigans
journalist
assumption
octane
octopath
scavenger
indicators
unwarranted
micromanaging
wingsuit
scientists
graveyard
tempest
painstakingly
oversimplified
repercussions
pricet
veronica
wolverine
californ
oftentimes
4a
apl
dood
mons
r9
srs
tues
voy
wc
wounds
##gery
##kit
##oa
##bat
##fil
##ju
reass
trink
##ifter
unworthy
##asting
scul
scouts
arnt
arab
##moon
lotro
peril
deffin
wrapping
##ogen
extremes
gib
subspace
corn
godawful
dunwall
lagg
##plicated
##gnant
paints
boxed
imaginary
freshness
optimizing
simplification
villager
ahh
idioc
traditionally
disgustingly
blinding
fetched
shoving
##ttes
bummed
paradigm
teleported
teso
artsy
exploitation
##missions
applying
disguises
invinci
coordinated
##90k
goalkeeper
asteroid
asteroids
sorcerer
algorithm
camouflage
muddled
overbearing
varric
chibi
declassified
caricature
xenogears
jee
mics
##lie
##lle
##stic
chu
shills
gamespy
leans
unquest
overre
multy
##atched
warping
resogun
decim
guilt
shorts
puyo
empower
diva
baron
##yyy
grandfather
illumin
richly
roguelikes
substit
neatly
extending
cakewalk
juicy
2k13
recruits
2142
heavenly
spartans
mhw
itching
commended
siblings
stoked
interrogation
angst
valkyria
vehicular
monstrosity
uncontrollable
unnerving
pricetag
aura
bah
billy
dink
hue
iz
jp
kate
lumber
mats
mists
nag
rains
thresh
beacon
asym
##rok
fray
grue
unic
node
spree
overse
helsing
arg
##istant
reskins
decals
##ountable
swbf
waits
metric
halflife
communist
randomization
deviate
15th
markets
approved
##ellent
erase
ff15
traveled
blem
alienate
smashes
##oooooo
sams
tackled
disconnecting
dispos
stormtroo
photoreal
leaping
stomped
disturbed
elevate
buttery
unwield
shinji
##xxxx
implore
ambushed
evokes
daggerfall
deceptive
tarnished
exhibition
acrobatic
executives
alleviate
siren
fantastical
morrigan
overblown
4ghz
gd
nyc
ott
pals
vt
##avers
##iets
##uge
##mhz
shore
##ulse
##reative
trace
abhor
leaks
wayne
diddy
##owness
minion
remaking
lineage
india
indirect
talion
detailing
disco
skyline
blackops
transforms
##plus
literary
touchy
ballistics
casts
respecting
vastness
replica
duplic
navi
informative
calming
answering
chopped
absurdity
captivate
abandoning
dominant
dusty
transported
journalism
##holders
showcases
innocence
decreased
arbitrarily
beamdog
augmented
absolutley
obligated
nwn2
boasting
bonfires
villian
tyranny
nunchuck
claptrap
multitas
confronted
amidst
artyom
unmemorable
danganronpa
shepherd
unsuspecting
fes
rere
##name
##tly
##kh
##rep
##around
##asi
beut
alleg
moreso
timely
##ifer
quib
sc4
intimate
bl1
offence
draining
dracon
resent
swan
secs
accol
specif
honour
reticule
bugging
blacks
menacing
countdown
avoids
signing
antics
countered
suggesting
##ooooo
insultingly
intelligently
pesky
phenomenon
vanished
hangar
crimefest
disasters
cooperatively
editors
daddies
hamill
emergency
mcrae
applau
gfwl
nauseating
symphonia
indoors
##gggggggg
misunderstood
patriots
azerite
dismemberment
promotional
patrick
mammoth
porsche
california
bard
cig
dz
eur
hone
jul
lance
##dles
##lift
##oes
##houses
##51
##itary
##icating
suzu
mug
cog
evenings
arsed
##activ
clarity
##quit
farce
kindly
portug
snakes
##elp
messi
stuns
fluctu
dissidia
hideout
routines
mgs5
doorway
spiral
willingness
estimate
researched
uncreative
accomplishments
omission
cruising
brawling
kotick
jeff
discussions
compensated
2k17
planting
kenny
entrances
pulp
##handed
degraded
dubious
stimulating
redefined
shambles
alignment
stems
enchanted
condemned
reimagining
rachel
prejudice
promethe
unquestion
unwieldy
elys
##nation
##hetic
##ли
##orters
reed
regr
stumped
##ersed
allways
weary
##ctic
spat
##urom
sebast
desirable
intervals
##ials
drunken
longing
worker
considers
engages
dialouge
relating
gtaiv
wastelands
##blood
forgets
dooms
fitted
##parable
gt3
unrealistically
tasty
materia
tacky
xpac
announcers
skeptic
240
kiryu
shutting
delicate
detracted
explanatory
admiring
mysteriously
stretching
grapics
embarrassingly
transports
outweighed
plugged
dubstep
marginal
ccg
authority
drowned
rectified
1990s
exterior
suspended
vincent
ancestors
batteries
unsurpr
html
outshines
gigantamax
1s
480
5x
512
dup
elo
hw
ls
mothers
tides
##gig
##iences
##78
##sticks
whale
haph
wel
weave
##oped
##ilites
perplex
recapture
wargaming
scoreboard
indestruct
portability
evac
evry
unload
continents
dutch
oppressive
checklist
ours
executes
commandos
hdtv
punctu
verry
hydro
respawned
vox
booty
rebooted
camos
emphasizes
iceberg
skell
protected
embed
determination
dreadfully
bgm
complimented
colonies
smells
harmless
puppet
dissatisfied
infestation
consecutive
undetected
tuesday
1gb
2b
81
ew
evie
gist
jord
jell
males
nim
rf
##iose
##lishing
##wd
##2play
##oup
##orf
topp
reale
stroll
moot
asse
timesp
upfront
gol
donation
1060
seals
themself
##iley
impending
tease
##achable
setlist
appalled
shortness
focuss
messiah
norman
concise
silencer
galar
banana
##guy
duct
commonwe
torso
strenght
atmospheres
mirac
ineff
750
admins
pitfalls
contribution
2k15
frenzy
affordable
accompanies
stalin
rubble
ftp
soviets
beefy
cohesion
precedent
pyro
##aaaaaaaaaaaaaaaaaaaaaaaaaaaaaaaa
louder
acknowledged
##55555555
subscribers
encyclopedia
relegated
haphazard
seri
sought
sno
tainted
waving
##gled
##ique
##with
##79
##ndo
bean
foray
forerun
##ida
orgas
##asted
prelude
characterisation
feas
##erium
hourglass
finer
batting
bo4
rocking
##olous
appet
huds
glam
bossfights
##ictive
buildup
certainty
##scope
curves
excelled
cheater
humili
immac
snk
snuff
firewall
tracked
popc
shamelessly
intros
equation
approves
elementary
1940
commentators
fielding
feeds
positioned
irritation
psychotic
liner
populate
establishing
sf4
possesses
tabs
transferred
outrageously
registering
warehouse
fc5
husk
turok
ruled
warranted
lovecraftian
manhunt
tinker
escalation
disorienting
gabriel
##bourne
outsourced
caravan
backbone
commonwealth
5v5
eco
nab
pings
##ek
##iere
##based
##fish
tos
ofp
##start
##aldo
haves
asus
##illia
graw
tripping
poet
contempt
mano
desync
realtime
boiled
helm
exclusion
freind
hopelessly
edged
advis
casuls
county
bullcrap
utmost
merging
correctness
springs
thorns
advancements
##ologically
pandemic
gasp
emeralds
contacted
observer
observation
compromises
bluntly
pedestrian
russophobic
alerted
molecule
werewolf
kilome
boomerang
foreseeable
ennemies
rejoice
nordic
exercises
autopilot
invincibility
53
brian
cbs
sist
tether
wretch
isles
##icitly
wast
sh1
##ulary
##amas
therefor
##imity
sparks
precon
lottery
thriving
reccommend
flam
appreh
fullscreen
foss
excusable
##00gt
purist
ava
reticle
trackmania
##nerability
foreground
forefront
grouped
unchallen
assassinating
bordering
approachable
banging
roadb
nuket
hotkey
streamline
fleshing
volta
riddick
embark
aggressively
championships
container
suspects
portraying
obsessive
cripple
warframes
devastated
lingering
harmony
whisper
sample
lizard
groove
theoretically
purchasable
submarine
bewild
peasants
facepalm
jordan
nuketown
aust
bj
fouls
gps
ic
jimm
rct
ripp
x4
zap
zany
не
##god
##cards
##mage
##48
##ть
gamey
##itudes
whales
##oms
chass
shined
sued
trim
##emon
spits
sparr
preach
##actor
awaken
impulse
syria
brack
##spot
slipped
repit
setback
issued
swg
##liver
##solved
herd
herit
poorer
jumpy
locals
bloodst
posture
suckers
criticised
turkey
##thright
ffa
winds
caus
milky
regretting
facets
mgs1
tasteless
crews
jackson
threaten
mentor
dispro
debatable
cycl
celeb
roofs
decreases
ooh
multiply
distributed
critiques
miyamoto
prophet
expirience
plodding
gabe
hull
jeeps
kyr
lp
rapt
sag
vect
woot
yh
на
##pth
##iton
##itis
##eda
##asu
stasis
whores
##acent
haunt
##ooking
##rolling
##apult
comically
enlight
mags
##opol
toolt
stride
ro2
modder
##arky
wakes
styx
elusive
totem
restricting
riddle
failings
wink
hellish
futile
##ounge
predomin
wilds
trashy
profanity
dripping
simplify
frontline
grandiose
rambling
unsu
70s
fetching
diversified
##obia
warnings
plaguing
slopp
derived
dumping
northern
simultaneous
bf19
fiddle
education
melodies
tinkering
slideshow
acrobatics
terraforming
sidescroller
pvz
killcam
anchor
aow
cus
croc
dred
eaves
omitted
pierce
rim
uc2
иг
##ser
##vi
##nce
##yer
##bird
##beria
##esar
mosc
anoying
##unction
chunky
exacer
exellent
converse
dept
trashing
lem
lob
ama
imbalances
blunder
tw3
attila
carver
comming
helix
ideology
index
envision
beatles
constit
randy
snipp
spacey
promo
transmission
revision
armory
framed
framedro
antich
investors
competit
notebook
metropolis
bombastic
##etera
1960
predicted
smartphone
suitably
sunlight
blobs
glob
downgrades
displaying
obtainable
pretends
patients
##lette
photograph
ethics
bogus
behaviors
carnival
##losure
gimped
migration
catastrophe
dilemmas
unjustified
adversaries
hypocr
vapid
daggers
splicers
disposable
chassis
heritage
exacerb
dign
fah
gil
r3
##ras
##rack
##lty
##pings
##hou
##75
##medi
##arish
##stock
##styles
##rol
##ersive
shard
##ulously
weed
meager
everthing
nova
outline
sped
##iches
plow
##ummy
drakes
strides
instability
##bell
horn
factories
assurance
voiceacting
squid
occass
successors
accessing
personalized
confuses
fitness
dynamically
dogfights
affection
supcom
gemini
smartest
hyster
squaresoft
irritate
ashen
hallmark
caverns
birthright
scanner
astonished
spaceships
revisited
capitalism
interrupts
unequ
hammerpoint
##keeper
excluded
##engaging
amazement
albion
ronaldo
neighbour
crosshairs
meshes
persuade
catastrophic
fandango
beacuse
tattoos
displeasure
unfulfilled
augments
proximity
virginia
shmup
pyramid
##stroke
moscow
73
avel
cum
cale
dough
dumps
els
hs
jane
kool
mason
n00
sce
vint
yada
##ao
##iw
##crit
##banding
##enor
inmers
re1
allready
expan
overtake
manag
otherworld
opting
whoa
peaked
vex
syberia
##spo
complements
drills
##reeze
warming
swoop
openness
carp
variability
plata
passives
negate
constrained
majesty
craig
##ella
exploded
millenn
trainwreck
calam
cata
licences
energetic
presets
categor
colos
assignment
bores
grimrock
stabbed
independently
tortured
discouraging
angeles
unbearably
beefed
demonstrate
wisdom
zeal
educated
reversed
deducted
squeal
paranormal
masochistic
olympic
coincidence
skiing
repackaged
dificulty
quintess
renowned
dazzling
##machine
nihil
threshold
specifics
indestructible
9000
aoc
cull
gank
gai
hoot
lust
pas
pairs
sence
xone
##lor
##uated
##hib
##wart
##29
ths
##esh
##asers
belly
##ilated
uneth
poking
compounded
##introdu
seams
crut
pelt
velo
##ishable
implied
backseat
##ighters
drained
slope
roc
defy
swipe
valued
starving
retread
cannib
kiddy
kiddie
bloodlines
viewer
airship
bananas
##resive
##byl
traditions
smartly
identified
ceases
toolset
tiered
invisibility
reflective
junkies
organize
cyan
##heit
debating
farmers
attributed
hindsight
bonding
enormously
transitioning
##ernobyl
triumphant
cloaking
reckless
##ominal
cherish
tidus
stinker
concludes
bulky
persevere
prolonged
upscaled
draenor
disheartening
hastily
srsly
idiocy
eavesdro
unethical
3s
ame
eject
ik
kag
lum
pts
##citing
##hoo
##ер
thee
##orce
##vet
stitch
soaked
##idth
fricking
doc
alts
abzu
nos
spa
spont
adoles
sev
peasant
endorse
finch
fling
setbacks
oldest
swamps
openings
##version
supporter
##standard
unto
regime
indies
curry
cape
retcon
##inesis
survives
discont
100x
blacklight
homeless
suckered
accessory
##angeable
logos
miniboss
strewn
filth
grandma
2k11
indepth
astound
completes
assaults
affix
glove
cringey
destructable
transforming
dx10
vulgar
documented
vocab
mislead
analyzing
pairing
toddler
surfing
garrisons
dynamaxing
album
empathize
overclocked
lauded
tiniest
carrot
sibling
beleive
concede
exposure
auditore
wholesome
grueling
velocity
batch
gid
jum
tubes
vant
wen
wade
##eys
##aunch
##tably
##lar
##made
##fig
##oric
gametime
reintrodu
##lyph
##oma
##child
##ulative
##amount
sus
##ighty
sparing
##inder
donald
crud
farmer
rox
aces
steak
##ondorf
folder
muster
superhot
puzzled
portrays
infront
placements
satir
devotion
deathcl
nonline
menial
parag
marsh
stripping
tediously
sorc
proficient
windw
sniped
clickers
carts
miller
flashpoints
tempting
brightly
jacket
omfg
minuscule
hawken
dashboard
glaringly
astonishingly
jamming
ethical
crannies
ragnar
discourages
shovelware
stardrive
overdue
decorations
bandwidth
plateau
symbolism
devolves
reversal
accumulated
tentacle
concluded
dismay
cpus
dizzy
trippy
sistem
vintage
eli
jit
jumbled
xillia
##eal
##gm
##frog
##x12
##rels
gamepass
##ali
##ettes
##rolls
##estyle
grading
burial
bl3
backers
genious
tw2
developement
muscles
definit
emiss
sceneries
medkits
skywalker
magics
distorted
predators
##aneously
memorizing
128
##bbled
dependant
harley
bleh
astounded
luv
antiqu
dishes
errand
brightest
publications
reactive
##after
##heim
ticked
##oku
unblock
sfv
phantasy
disturb
somber
demanded
flooding
unintell
peeve
##semble
autosaves
ecos
sweaty
punkbuster
persistence
ambiguity
submitted
unfunny
##fixes
resonate
diluted
masochist
gametype
especialy
excruciatingly
wedding
heels
wheres
photorealistic
suzuki
##elpful
poetry
antichamber
vantage
akward
este
juts
kle
mong
paly
tpp
vas
##occ
##far
andrew
##ani
rey
reenter
chernobyl
##entric
##eem
shack
##igma
meand
megas
##imbo
griff
griev
##onel
amass
eventhough
##ulty
arn
##usd
wherein
strives
##perfect
fang
##utely
explicitly
emulation
superm
spewing
starved
woah
shotting
formid
formulas
confl
dune
squish
fillers
installs
successes
sucky
spoilt
airborne
kicker
arranged
misstep
diretideつ
suns
politic
catapult
individuality
argued
##tttt
climbed
lvls
labour
mk11
orientation
armours
450
delving
tesla
assigning
gradual
elevators
congratulate
##heads
overshadow
unhelpful
supremely
hayth
conserve
##erunning
fleeing
archetype
conjunction
berserk
astronom
pigeon
unintentionally
unconscious
waifu
aboard
quickscoping
abhorrent
cth
cia
dit
gently
jc2
pins
uma
vn
wards
wils
##rill
##vik
##cion
##you
##hell
##verts
butts
##irst
##ulter
enforce
##ifully
upto
unkill
prefect
quips
scal
scrib
usability
multiverse
whereby
glider
gunners
supporters
screamed
indicated
powering
battlen
discard
discrim
texturing
##blizz
simulating
##reciated
duped
referee
odin
faq
skinning
panning
unexciting
miis
analogy
abysm
##40k
proceeds
##attack
farewell
frightened
principal
reservations
cancerous
spongy
owes
patrolling
compromised
laborious
milestones
scorched
cousins
dismissed
glimps
valkyrie
javelins
perceive
hitches
werewolves
scramble
texas
subplots
wepons
newspaper
ribb
jeez
samsung
embedded
popcorn
aveline
71
dys
ech
fests
hul
jage
oro
rosal
vale
xmas
##gold
##nic
##kow
##f4
##fol
##llect
toads
##itals
##send
##ulars
thereby
##ilized
##ctr
ardu
##istical
clowns
##mosphere
##abies
gene
flights
##ipid
resid
underw
solider
unfounded
fret
##duct
starb
##umpy
platoon
medit
laura
substandard
packing
boob
paraly
addictiveness
beginnings
postp
aimless
legos
winding
silk
irk
##ycle
spectator
trusting
salute
ripley
swept
metroidvanias
consumable
shocker
sighted
pinned
emphasized
qualified
paintball
unpop
southern
accidently
jewe
vampyr
emergent
angered
unevent
agendas
ootp
rubberbanding
##ulsive
grubbing
thirds
censor
universalis
chalice
depicts
woeful
swiftly
downvote
meteor
corsa
pivotal
feudal
indifferent
trajectory
multyplayer
windwaker
emissary
ecosystem
battlenet
aided
jc3
sq
sut
ticking
yuri
つつ
##gone
cheep
comer
grail
loll
prohib
gole
premon
ard
bestiary
afterward
finite
##boding
consens
favored
savegame
##renheit
potent
fireworks
schiz
greens
achiev
installations
##alyp
civ4
borderland
democr
appreciates
arriving
##guards
##design
misin
masked
choreo
surrounds
nightmarish
economics
defaults
rooted
reinv
acquainted
honorable
spreadshe
stereo
mesmer
wondrous
circumvent
ambushes
lightsabers
athena
unexplored
preceding
sdk
documentation
podcast
paranoid
garnered
mexico
renewed
mascot
nadine
parasite
rebuilt
ukraine
fahrenheit
formidable
wilson
dnd
hig
kerr
pw
pimp
sic
tis
ws
wih
yuna
##eus
##ni
##tin
##hel
##hazard
##fast
##isp
##isen
##icates
##struct
beter
lifting
chir
enought
weaving
mea
spher
pregnant
##ichs
contests
intens
pla
cleric
thematically
vey
disinter
intersp
brat
brad
recol
defint
modifying
swsh
accused
freeing
ideally
soup
disclosure
devour
loadings
revives
scholar
balloons
madd
upgradeable
unrefined
antial
bonkers
joycon
mister
usefulness
bottlen
strengthen
sleeve
alternatively
dmc5
##draw
1992
weighted
faithfully
##quisition
zoe
ryzen
mashup
hl1
adaptive
reliably
vaults
bedroom
indicating
rtw
vending
safes
##factor
sympathize
challanging
assetto
orbital
deem
unrelent
improvment
preserve
obliterated
litterally
brigade
##yyyyyyyyyyyyyyyyyyyyyyyyyyyyyyyyyyyyyyyyyyyyyyyyyyyyyyyyyyyyyyyy
outlandish
likeness
drivat
imprison
##antha
hudson
wretched
##x1200
jagex
arduous
1h
gtr
kd
ration
ue
yokai
##iot
##hin
##hon
isab
inverted
hailed
comstock
alarming
##igree
traction
unarmed
muff
poland
goin
plunder
peggle
##aza
tavern
interplay
pero
strider
slav
tryed
##pock
attent
deadlines
dueling
sheen
submer
discord
confid
parod
addicts
innovates
touchpad
succumb
purest
morbid
seasonal
miscell
1950
netfl
richness
tagging
phenominal
secretly
superiority
violently
sentry
knockout
cams
quarant
outsmart
rename
ganondorf
unusually
regenerates
sabote
observed
pedigree
busting
carbine
resorting
reinvented
convention
ccp
dictates
artistry
ddr3
rectify
temperature
almighty
melancholy
dolph
imbec
disparity
inserted
euphoria
henchmen
trinkets
kyrat
calamity
vocabulary
unkillable
uneventful
netflix
1up
770
b4
bing
gur
jc
kas
oom
wy
wool
##kart
##lab
##pread
##bags
##68
##eching
lifest
##iroth
orks
deactiv
unm
outlets
##urt
poles
quasi
1024
seph
crick
whome
blab
bliz
imposed
slipping
warchief
apprent
##onds
increments
detest
exclude
ideals
php
pickpock
beatable
dipping
ridley
snarky
looted
enclosed
cashing
memorization
apb
wildcard
filtering
dotted
hilarity
budgets
crowbar
healed
gtx9
cycling
tl2
determining
##pany
gangsters
pursuits
rivalry
resetting
2k12
toxicity
yesteryear
sarah
interruptions
boggles
tbc
vendetta
slammed
conceivable
demonstration
sexuality
##horse
refreshed
victoria
granting
routinely
compositions
paywalls
##iiiiiiii
900p
olympus
resurrected
singularity
mojave
amplified
monologue
insects
envelope
graffiti
moddable
freddy
unadulter
yharn
bf1942
2s
bic
bip
dcs
edi
jin
jen
wired
xt
zest
##aii
topping
oncoming
soc
chained
comunity
shay
orign
cone
leash
outshine
willingly
pointers
coher
prosp
compressed
prede
##pper
scaring
bestthe
cling
makeover
disks
multplayer
draken
defying
decipher
bites
campfire
classy
carlos
accus
suppression
metres
masterwork
freestyle
indigo
##trough
fallout3
damsel
breasts
##ceptions
##renic
30s
rockstars
biowares
deliverance
earliest
frontal
grandia
misc
functionally
tendencies
informer
wesker
shrink
##ologies
hindering
delightfully
rhyme
shelled
preordering
evey
religiously
inspirations
fabio
observing
jammed
oozing
escorting
handicapped
widespread
##rrrrrrrr
thirsty
extermin
##aaaay
harmonix
endeavor
misfortune
##functional
brainwashed
tinted
carmack
darkspawn
sebastian
timesplit
inefficient
jimmy
premonition
##alypso
3gb
dave
fount
gul
lull
oven
peeps
##rt
##cont
##uan
##ак
##anky
youd
hau
haze
shud
coaches
preform
##devel
bads
teamed
intoler
disarm
afterall
agrees
slings
smh
styling
##owski
commits
supplied
refers
pasting
droid
lowly
relates
subn
discovers
sniff
godsend
importing
kidd
50s
squall
daft
introductions
foreboding
##balancing
robber
banished
alienated
traders
##amente
samantha
circular
suspicion
rocksdevel
bloat
fooling
matured
organically
bundles
renov
stockp
l4d1
polyph
bustling
conveys
technologically
koreans
monetary
biohazard
sotc
griefers
devolved
financially
chalk
incorrectly
vesp
indulge
vicinity
bolster
cqc
drooling
miniscule
draconian
immaculate
framedrops
conflicting
haytham
abysmally
consensus
whomever
unadulterated
timesplitters
dorm
fking
gle
koo
kro
nik
rd
v1
wu
wage
##test
##lage
##oia
##ны
##nds
##orous
##omance
##cha
chaining
commen
loan
unengaging
outclass
##urf
heed
sep
bravery
realist
boll
slain
roach
resupp
horned
##gets
monoch
superl
meth
codec
mastermind
animate
##score
phasing
collide
dammit
droves
humming
insists
critters
lawn
shotted
grinded
continual
readiness
transit
weaken
distaste
actuality
nighttime
heartily
effortless
da1
homestead
125
avoidable
utopia
productive
optimizations
ducking
unders
premiere
dmr
circus
localized
vanity
busywork
hairstyles
attracts
attractions
10000
electro
##warm
dashes
gritt
deceit
exploitable
pills
participation
rehashes
sjws
associate
refinements
ingredient
collapsing
weighed
dkc
correl
interrogations
communications
feroc
fractured
harrowing
sauce
loathe
jelly
paragl
cthul
starbreeze
miscellaneous
bizz
fables
hc
hipp
kf
m1
moth
tig
tought
uch
##gal
##tz
##oire
##uch
##hift
##zit
##erg
##athing
beaches
##ecks
churning
##ersion
sucess
##gear
tramp
lofty
ungod
##urry
preh
heated
##ivably
##agin
##agan
##erience
peice
blinking
brace
20s
repay
undermined
horns
##liers
telltales
rupe
epics
indesc
##mont
phoned
##shield
pleases
insipid
shelling
pots
headless
supportive
snag
tonne
doubtful
rounding
hurdle
2560
dodged
predictably
astro
##peare
dmc1
##vana
limp
akira
breathtakingly
bayek
googling
geniuses
snowfl
remainder
dominion
junction
assisted
recruited
zooms
induced
disregarding
declared
redoing
zeus
ludicrously
devolve
injected
arrogance
aspir
documentary
forbidden
buggiest
♥♥♥♥♥
##uuuuuuuuuuuuuuuu
##years
williams
perpetual
manifest
motorbike
sporadic
duplicates
##represent
colosseum
quintessential
giddy
##perfectperfect
kerrigan
predefined
rupees
9th
farts
md
nico
peel
pact
sank
uz
wad
xxx
##bul
##erate
inert
rept
haired
ares
liv
fruition
##iria
enjo
myclub
expier
unwe
fel
plum
crane
stills
##abil
awes
tak
booring
flas
resell
instak
wrink
fo76
carve
lifelong
masterclass
##uda
believer
scenic
valiant
plotting
reliving
60s
packaging
engineered
crashers
effing
motto
cooked
drawer
equipments
##bral
borne
gels
overlooking
currencies
reboots
qualifying
stellaris
posses
retained
gaem
##3333
##encers
##lasses
crushes
britain
broadband
courtesy
assemble
obligation
adventurers
scheduled
redeemable
hammering
chalen
lamb
lisa
paragraphs
aspire
cathed
##2004
youtuber
##speak
monologues
wtb
skyscraper
schematics
satellite
reiterate
wrestlemania
infrequent
golfer
ungodly
5h
amend
bd
bgs
dens
fb
fad
josh
pard
ud
u2
yt
yen
##hun
##150
tow
##omotion
##ghast
asura
shun
alth
althought
mej
devious
trance
funne
poem
compound
compend
beck
adhd
cray
##abre
sliced
securom
elise
##zzle
articul
invigor
starbound
requis
restoring
subclasses
##ocate
heroics
motif
followup
apro
burger
ers
throwbacks
boner
alienating
impacting
refunding
##ports
cement
cosmic
pes20
guarded
wrecks
highlighting
snowball
triad
horrifically
extrav
disliking
macabre
conveying
settling
clutch
summarise
stroy
fiddling
consolized
outdoors
nausea
hammered
profoundly
gaze
1984
diminishing
dummies
##burg
garner
##frame
mvc3
relays
shakespeare
sigma
inovative
bribed
sponsors
##a¥a¥a¥a¥a¥a¥a¥a¥
untrue
volcano
multitasking
rerele
gaijin
nonlinear
rosalina
reinvigor
saboteur
yharnam
subnaut
polyphony
cf
cj
dicks
hier
icy
lyr
mism
nis
rl
riley
yam
##eous
##lip
##yrs
##inated
##rey
##reted
##isers
##icz
ford
forging
liam
fruits
shreds
atop
gr8
spain
prod
##orts
##iva
bests
blond
beenox
interrupting
##quests
strung
slime
wari
warhorse
defies
resounding
##bole
##berish
freeb
supergi
depos
evocative
diagon
mariokart
masterpe
##elic
markus
posing
weakened
ridiculousness
moto
breakout
existential
ballistic
ut3
copycat
machete
joycons
shadowbr
notches
gtas
uglier
richard
matchmaker
##110000
sixaxis
hostiles
akimbo
##ganized
studied
##opsis
fortresses
slopes
jerking
deceiving
ocelot
megad
##flow
micheal
witnessing
rivia
senran
inhuman
clients
recovering
culpr
a£40
creepiness
##manship
##ranked
tranzit
arrested
synchronization
prioritize
underestimated
melancholic
arcadia
skyscrapers
shantae
piecing
incessant
volleyball
unchallenging
kagura
drakengard
indescrib
subnautica
560
580
cache
das
faux
gj
gull
glyph
hem
kite
mules
nrs
wang
##gee
##rations
##iations
##lave
##page
##uation
##ка
##fter
##ри
thedas
##inion
##esque
##oration
reel
##very
ante
notices
sh2
orph
atb
##imation
upping
unranked
adictive
quinn
felling
crumbling
blanks
##aba
prothe
strangle
slips
rode
floo
##arkand
terry
##grown
surp
mush
carriers
free2play
unfav
untested
frees
freero
ep1
indist
refrain
##moral
##shed
copious
smoothing
wallp
concur
midair
conceptual
furi
keyboards
dumbf
40s
apath
tarant
climbs
demolish
blender
replicated
flock
eu4
rainbows
sunken
processes
##guns
phenom
bottomless
1991
synopsis
telek
overlap
uninterested
##affe
thumbstick
170
gigaby
detractors
accidental
pandas
templates
pacman
awakens
elevates
uneasy
showcasing
nonexistant
##1440
deployed
indoctr
theatr
smithing
dummy
monument
merchand
brazilian
tcg
##written
uruks
##88888888888888888888888888888888
eccentric
overflowing
electrical
spouting
discrepan
aplenty
beutiful
schizoph
zestiria
vesperia
apc
dess
dared
hinter
koop
mee
pim
wipes
##gos
##ais
##rus
##tons
##uva
##bron
##ло
##inos
anderson
##arget
##arov
##uten
##stones
bef
bellow
reloc
##alm
##acious
playthough
alarms
therein
deeds
getaway
muy
coc
charact
acti
scy
##ints
intents
plaster
loooo
cloned
##erily
vel
imply
syph
genetic
needle
sauron
neverending
flipp
institute
underused
shortened
visor
speculation
refines
eva
##umping
halo2
lightweight
headers
spacebar
messenger
popup
armoured
signals
footing
destroyers
crossbows
grander
2k20
inspires
undone
greedfall
dangerously
booting
labelled
spelled
disconnection
##outhanky
dishonoured
utilise
resolving
formerly
loudly
fulfills
emerged
speeches
recovered
arbiter
sidetr
ilk
maneuverability
comprehension
augmentation
lunar
avengers
anxiously
saddening
##lolololo
proclaimed
trenches
jsut
cerebral
vigilante
biosho
bionic
xenosaga
dinklage
bloodstained
calend
unblockable
jewels
interspersed
sephiroth
warioware
buster
cked
cuss
fonts
gary
h2
jess
lor
mun
mater
oreg
rash
ripe
rural
vass
##iasing
##cen
##cogn
##mw
##icially
##alies
##ething
##apon
nef
orde
enim
maul
##geon
expire
outings
adject
betting
##ista
##isted
thrash
offroad
intervent
strap
strang
flops
decency
acii
acquisition
perfects
scorestreaks
glimmer
nextgen
valor
redfield
polite
##ocused
dunks
colonel
heartgold
##mbled
##loads
unrecogn
ff8
watercol
mercer
dynamite
verb
fanboyism
masse
consumption
borring
falters
##ricted
announcing
shocks
expressing
psyche
jackass
lancer
caesar
sharps
essentials
dominates
shroud
expertise
jaws
##rrr
##ova
##euv
gymkh
necro
infuriatingly
dexit
societies
hyperbole
invasive
repetitve
crouched
stylised
cautiously
crowning
doctr
embraces
squeezed
shitty
niggling
lukewarm
misunderstanding
tarnish
discipline
stingy
you´re
karaoke
commodore
sweden
crybabies
unattract
shivering
reedus
forerunner
sh1t
snippets
sorcery
lollip
apprentice
krogan
shadowbringers
##outhankyouthanky
bp
bnet
dere
fen
m2
nets
okey
pg
qun
tarsis
vor
xe
##ez
##nal
##civ
##cade
##older
##mother
##max
##98
thi
##oust
gamep
##enauts
youa
beje
rejo
##verb
soda
notification
shat
shes
shuts
sull
storys
##ardo
unwind
##ession
spared
overp
overwr
tooie
##tingu
tailing
enduring
knit
saiy
dru
eashl
20€
##ashi
survey
##ensions
wah
untold
animatron
phased
valves
avg
broker
retal
lakes
immig
discarded
skyd
locale
advisable
mmofps
facelift
smoothed
middling
motoc
erad
##lights
tvs
oddities
salts
tended
hyd
risking
streetpass
eurogamer
operates
sentient
businesses
wrex
telepor
perfectionist
reinc
coh1
irrespons
##arrel
prompto
possessing
vertically
narc
hipsters
sideste
escapism
wizardry
cloaked
ja2
embraced
decoration
victorious
puppy
hologram
redefines
reinstalled
louis
psychopaths
executive
1980s
remnants
scrub
unfulfilling
depleted
dewitt
treadmill
debuffs
manufacturers
ressour
claymores
regurgitated
tranquil
sculpt
applauded
portugues
sparrow
vector
affixes
prehistor
supergiant
oregon
cord
dary
hg
kens
tress
vive
vids
weep
yad
##dys
##non
##uro
##x1440
##44
tht
whoop
##alia
wither
asari
frown
coma
##irs
dojo
ensemble
trudging
lemm
characterized
crumble
##abouts
##azing
imperson
worldbuilding
brats
20h
lookout
modnation
ps5
apps
accuse
cod3
winners
submachine
impressing
dives
copyp
##company
parking
##iba
midna
##elle
warfronts
##crafted
unreachable
autolog
##boys
crossplay
ghostly
joysticks
arround
demig
digest
ugliest
sandboxes
tagged
squareenix
18th
intends
nailing
psychology
infamy
1080ti
shutdown
palpable
incentiv
brawls
trendy
blazkow
beds
binoc
bizarrely
venturing
stabil
summoner
rabbits
pedal
##renched
showcased
venice
nicest
association
disregarded
enchantress
sooooooo
enraged
dictator
confirmation
reworking
cheeky
lunatic
oxen
tidbits
unconvin
penetration
annihilate
uncertainty
##9999999999999999999999999999999999999999999999999999999999999999
omnip
intersting
manufacturer
chimera
psychedelic
greetings
unquestionably
unsurprisingly
feasible
compendium
floored
gag
jank
kame
lions
nir
pouch
ras
vest
yosh
##aim
##barrel
##hi
##hards
##4u
##jet
##ла
##inger
gameb
##sts
rearr
##aco
##ths
chairs
shan
shirts
engrams
lew
exposing
uned
amp
amanda
everyway
intru
planted
looping
aficion
agressive
##qual
saver
farmed
flipped
aciii
attitudes
factually
puff
##athom
founded
unfix
unfocused
customs
invari
powerup
collectathon
shotty
beholder
oppose
garfield
strait
legally
strikers
personalize
preferable
burton
ffb
ff12
clicker
terrains
2500
misrepresent
scrape
radios
selectable
apollo
referenced
##bai
wreak
influencing
gloom
subjected
chronological
revolved
translations
hawks
westwood
assistant
ramping
discounts
employs
oceans
marksman
unleashing
feeble
indicative
amateurs
saturation
tragically
##ynchron
lawsuit
gimme
uploaded
starfighter
paranoia
misunderstand
cathart
perseverance
brooding
miiverse
atomic
aurora
anomaly
anomalies
collaboration
trauma
railroaded
pronounced
rarer
elysium
tooltips
glimpses
unwelc
tarantino
telekinesis
unattractive
cain
casters
f2
fading
jd
kom
mmm
rime
taming
uem
yer
zack
##eign
##a´s
##nor
##cuts
##kan
##uly
##fighter
##anim
rew
hap
##seys
asph
extingu
neb
shill
shivers
##ilings
grudge
abster
lebron
unob
nost
muck
goomb
adj
adher
10h
10hrs
clin
permission
syring
realities
incurs
slavery
roger
20fps
appar
##rah
glare
##former
lessen
##ombs
##prise
restrain
negates
edith
snapping
midfield
shader
aimbots
burner
##nedy
layups
harpo
galciv
vito
tombra
torped
sweeter
trilogies
shareholders
professionally
##minutes
sittings
publicly
reacted
##laive
snowboard
qualm
##killed
scamming
billed
teleports
privacy
proceeding
fedex
sr4
ordin
fragment
kennedy
decreasing
sidem
calibration
celebrations
reinventing
implications
crazed
decorate
infiltrating
apologies
montana
nauseum
clashes
amalgam
dwarfs
atlant
alerting
lonesome
rejected
picross
cabinet
succesful
dismant
nunchuk
catalogue
underestimate
you´ll
undermines
hallucinations
nilin
sentinels
##greatgreat
overcomplicated
asymmetrical
quibbles
accolades
crutch
orochi
underwear
antialiasing
bioshocks
gymkhana
reincarn
prehistoric
cathartic
960
ein
hoth
sung
uo
##eling
##gly
##lore
##oh
##uer
##uall
##uya
##bench
##mint
##inc
##itates
##itarian
mocking
withstand
nota
##oos
##idad
##cher
##check
fry
alola
justifiable
there´s
##iem
triss
outward
poise
pods
charic
charger
scoo
scars
##istr
looo
crows
##usal
pel
veil
blasters
endured
serene
litt
brutes
yearning
gens
drought
strapped
skool
##itional
mona
monaster
pug
hopped
##ogp
glen
caracters
##teness
cutsc
helper
##ccess
relaunch
corp
deathstroke
famili
motogp
forgetable
viewpoints
unchar
proficiency
favours
ff14
gorgeously
dsfix
appreciating
irish
2k7
slashes
centuries
karting
ceilings
blurring
##ttp
affili
redeems
eq2
customizability
dreadn
cafe
deceive
adrenalin
suprising
concentrating
fragmented
##ahaha
malaria
smacking
heartedly
##ucated
fxaa
jaggies
circumstance
craze
melting
##covered
notoriety
puppets
hogw
supplementary
almir
roulette
uruk
deduction
marauder
causal
##critical
expanse
astoundingly
antiquated
unrelenting
calendar
sharpshoot
lollipop
lemmings
aero
cured
cyl
fk
gou
h1
junky
lfg
nun
pumps
sots
tau
£25
##glaive
##aign
##ikes
##lord
##books
##го
whith
sover
##sea
moly
moss
shu
##iron
conform
thereafter
trudge
##ifull
looming
lobot
upl
unpl
unending
proverb
scant
10m
feathers
plates
differnt
##qued
striving
deff
deficiencies
decoy
steven
personaly
swaps
workbench
##berry
entities
anna
certs
refere
curtain
inclusive
sonics
corve
##oco
discred
despised
##ahh
hunk
revise
achievable
boxer
roommate
pressured
teddy
drip
invention
respectful
grandeur
dubs
salmon
clicha
tanky
nerdy
circa
dmc2
liek
flowed
crawls
miracles
delaying
qualifies
freakers
##obos
atrociously
admired
pitted
##ologist
rivaling
jersey
applause
photography
guarantees
frighten
peeking
calibre
inhabited
jesse
conceal
celebrities
mlg
plasmid
muliplayer
kidnap
flashlights
amiibos
sapk
interrogate
maniacs
avenues
miku
backpacks
moo2
fathers
obliterate
tmnt
allocate
acknowledging
gyroscope
suda51
agonizing
warthog
gargant
riku
dignity
satirical
scribbl
unpopular
orignal
qunari
invariably
abstergo
660
bis
dances
fusing
g1
jams
kal
lug
ror
£2
##ode
##oked
##bc
##wit
##34
##atform
##onal
##isec
sofa
##thers
enigm
conner
justin
prolly
compel
charlie
imitate
scape
mang
clad
thrower
offside
enjoyability
##izard
roaring
personnel
workable
waaaaay
gunned
gunshots
probability
deponia
refuge
friendships
cheering
redund
planing
halo3
oppinion
enclave
autistic
##ucked
##naly
barry
bf5
childlike
doubting
##ripted
essay
erm
admitting
vitality
dissu
disson
floats
estus
geor
restricts
evolutionary
buffing
detracting
subtleties
exceeding
pete
rallying
oversized
##missable
scarface
rabbid
4790k
alterations
poisoned
recruitment
kingsglaive
sparked
flicker
embracing
geeks
athmosphere
stocks
retreating
eagles
unreasonably
contradictory
mantle
hoarding
intricately
coincident
cassette
bidbarrel
pioneer
lionhead
scouring
kz2
exemplary
144hz
discernible
undeveloped
sergey
stormtroopers
manoeuv
freinds
kilometers
disproport
spagh
koopa
cthulhu
inertia
pardon
culprit
daryl
oxenfree
uematsu
asphalt
monastery
scribblenauts
680
bribe
mour
pff
ко
##rb
##pared
##making
##xp
##4dead
##ст
##inating
##eno
##asper
inad
##otch
onboard
soaking
playtrough
someth
timebest
unmissable
pokes
charles
overab
sevent
crib
##azer
##pts
prague
##osaur
slaps
decimated
righteous
underated
undertaking
undertake
issac
explicit
##lia
solitary
elven
makings
herb
foundry
unfathom
ruse
bikin
soured
droids
locomotion
soulslike
firearm
averaging
wiiware
nightwing
squashed
technic
garry
conception
conceptually
equate
daoc
madman
targetting
silencers
competetive
pleasurable
verse
blockbusters
purposeful
towering
assaulting
motivates
propel
recycles
guitars
westerns
terrorism
tfc
headsets
subscriptions
brawlers
jean
witnesses
unfolded
kh1
mundus
celebrity
strikingly
gardens
covenants
knuckle
inflate
weighs
contradiction
griefing
gentleman
lambor
egyptian
consumes
elephants
cheerle
enriching
clunkiness
##strings
defenseless
prosthetic
berserker
shafted
mitigate
undermine
tiberium
reunion
arcanum
piercing
boycotting
fanbois
allegedly
gibberish
nihilistic
lumines
adolescent
unintelligent
squishy
imprisoned
quarantine
oomph
uchik
merchandise
nefarious
intervention
referees
5k
8bit
dp
dix
fumble
gags
hk
hight
kah
kett
mari
nudge
qw
vine
yor
##dimens
##cia
##tal
##ui
##mountable
##да
##ва
##js
thon
anders
tod
##ancer
invert
stif
soaring
withdraw
##idan
##uned
fractions
mele
storyte
trillion
abduct
##emous
goli
hein
dona´t
arisen
##isting
clam
clive
crooked
usern
##riages
endor
agian
sayers
interse
##ptions
combatants
strays
minu
stupend
##xtap
classify
swarming
challenger
waaaaa
emulated
rund
depicting
curved
##cccc
damning
powerless
collects
atmos
win7
30th
diego
100th
promiss
column
paramount
distortion
##angles
##undra
tediousness
eric
waterfalls
drawers
joys
soloing
dubai
minimize
oddworld
referencing
tourism
audible
doorways
separating
civilisation
##goku
skinny
overlapping
mutations
handhelds
protective
lincol
hawaii
myths
juxtap
pander
hiking
stalk
awakened
mileena
colonization
gaping
trivia
aoe2
summarized
resorted
rooster
clocks
calculate
whacky
interceptions
hopelessness
preserved
synergies
cassandra
consciousness
eldersc
czech
makarov
pentium
triforce
boulder
apprehensive
dolphin
resupply
dumbfounded
bejewe
blazkowicz
gargantuan
enigmatic
bikini
caw
dh
dir
ets
jere
ks
lul
nood
oils
obey
tno
wim
zipping
##eer
##bad
##mite
##mash
##ни
##на
##ndry
##eta
##thest
lik
exits
enam
conroy
##eman
mule
pond
probe
manly
intuition
vega
makeup
##riber
imposing
offices
backlog
##spring
modelled
deform
resh
lookin
fanc
extinct
wax
visits
typos
thoughtless
customisations
freaked
##duction
evasion
invoke
destinations
brody
humong
unloading
left4dead
##wheel
yelled
1280
ut2004
casualized
descript
watering
sellers
upsets
2k6
roadmap
penis
pencil
searches
metacritics
summation
titanic
rebound
ramble
eyebr
unsub
alternating
separation
branded
synced
ak47
chrom
hinting
pinata
rebooting
billboards
paltry
gow2
dominance
fuk
medievil
rivaled
destructibility
innum
grimoire
mcl
unsatisfactory
octop
occupation
fisted
elaborated
announcements
triumphs
racked
degrading
ditching
beep
intellectually
parallels
##holm
##100000
unapolo
brushed
modifier
synthetic
geography
compassion
rhino
undeserving
compulsory
contenders
negotiate
tantal
insufficient
sentinel
parries
blasphemous
foreshadowing
focussed
slingshot
sidetracked
portuguese
unconvincing
uneducated
sapkowski
spaghetti
lamborgh
uchikoshi
cub
eerily
fizz
gin
hound
jol
kan
lg
mf
munch
mama
pf
pave
rut
rans
ux
yall
zoning
##rds
##vl
##nin
##nig
##lide
##lined
##oline
##pits
##uar
##burn
##mand
##will
##enas
insec
stared
ants
chord
chicks
chords
congest
justifying
wei
deplete
##ilo
##ilver
overleveled
##ultiplayer
##ivly
##ivating
plight
crummy
pea
pean
teasing
backf
bra
drifts
skid
slowness
flown
flailing
deformed
decisive
acr
##ryo
hoor
##mitt
honed
breth
watches
xboxone
helluva
courts
formats
battleship
holders
posed
remeber
encaps
ageing
marble
technomancer
##unders
casualties
ff9
competently
##cessary
illusive
commonplace
hideously
fiery
ragequit
fearsome
audios
towerfall
lieuten
chracters
jacked
presume
resistant
resistances
homerun
homogen
subscriber
farmville
cavern
petition
offensively
deathmatches
emerging
scarcity
arma2
participated
nitpicky
neutered
outraged
laptops
fares
ump
uncovered
obnox
earnings
lifts
ncsoft
gcn
strayed
examining
downtown
shaun
feminism
inexpensive
unprepared
folklore
neighborhoods
bunkers
embarassing
sentimental
clunkier
1943
promotions
fanfiction
contemplating
transcends
sedu
overheating
frustating
embodiment
traum
charecters
perfomance
panties
daedric
##blizzard
cricket
expierence
lyrics
760
b2
dwe
dah
fna
fbi
gushing
hiss
karkand
nipp
nato
tamp
vort
wank
yug
##bin
##qe
##wave
##ль
theses
todo
##icon
reform
rebalanced
buts
moods
##idade
chant
doki
conker
gris
graded
grumpy
trapping
adol
##ppard
##ppel
aria
##erials
diffic
badd
impract
intermedi
##joyed
prick
praxis
litle
bry
##aching
complemented
hards
batte
recapt
##iph
attest
underdog
##ype
incremental
effecting
fres
phis
quickest
chef
redneck
subways
crapt
mw4
confines
dung
coloring
distort
diablo3
achive
midi
explorations
emotive
ultimates
simulates
wildest
footy
weirdest
demolished
practise
autoaim
irks
2500k
bandages
radial
dancer
ivory
##stealth
catag
lieu
sexism
magnetic
miranda
atrocities
cyro
rotting
captivates
ryo
rythm
buckets
kinetic
slapstick
##regate
moderation
infantile
mcdon
ts3
induce
peebee
foggy
devastation
troubleshoot
cherished
geez
fairytale
##breakers
sheriff
contradicts
contemporaries
enriched
##zzzzzzzz
horizontally
puddles
glossy
gnome
mercilessly
scrubs
backstabbing
dogfighting
fetish
masquerading
sturdy
hysterical
ditto
cathedral
schizophrenic
syphon
motocross
loooong
clicha©
goliath
lincoln
bejeweled
fnaf
cay
cot
hms
lured
maria
nade
pk
rake
ripper
sizable
uc3
vot
что
##eon
##gins
##nium
##cross
##bright
##z1
##x2
toki
##itic
##storms
forte
##alla
playdead
##thouse
weights
deme
mygm
tracer
##players
upro
uphill
spouse
##mente
preorders
##ivision
scatter
scoff
seiz
crote
teased
drifter
##iseum
decimate
singe
##onda
swiss
workaround
monks
handcrafted
##icted
helghast
specified
belmont
bible
critis
subur
##rences
behaving
heroism
snee
snore
snails
##elps
autumn
predes
covert
occlusion
breakfast
breather
tenfold
footprint
fluently
2k8
25th
##iki
predictability
fellas
mounting
suspiciously
numerical
truthful
punchy
knockdown
incomparable
attracting
##uuu
mk2
forthcoming
gravit
electroc
delved
jerseys
innue
tyres
girlfriends
senior
phantoms
scrollers
inhib
transferring
msi
torturing
sparkle
bitterly
retries
warefare
wiser
alchem
dictated
correction
pearce
feminists
revered
samples
disciples
router
penetrate
peppered
flourish
gatling
harkens
deprived
assembled
roadblocks
neighbourhood
meandering
megadrive
indescribable
hinterlands
ordeal
nirvana
inadvert
elderscrolls
humongous
croteam
5s
bso
bouts
cds
dishing
fustr
kalypso
lent
ov
oll
pics
paved
rvr
sas
t2
wows
##lasting
##oster
##uigi
##erous
##ingen
##onne
reaver
whoring
sos
moe
##unct
frie
##opic
abn
abilites
buses
everyth
overnight
manor
manic
looong
sew
crab
diffuc
##uming
peg
perme
broth
bogs
startling
goth
minut
bitch
2077
putt
swind
musc
focal
gla
deth
payload
screeching
believ
biker
deadlight
wold
finals
##ceptible
sheva
battal
bugger
snack
steamroll
##cibly
traitor
activates
scho
hypoth
daii
testoster
macho
competes
cardinal
layed
galact
galaga
scrut
spectre
undec
tightened
dissapear
circling
troubling
cattle
estimated
unbelieve
murky
condes
esot
weightless
volt
integrates
murderous
gamepads
storming
##heart
altitude
sympt
tyre
recollect
fleeting
ck2
barbie
marty
cocky
##inguishable
strokes
athlet
consolitis
conspiracies
nomura
redefine
overcooked
reinstalling
aqua
polygonal
patriot
prospective
juggernauts
jonathan
rewriting
synthesis
brillant
##66666666666666666666666666666666
cdprojekt
miraculously
cyclops
sagas
conversely
hulking
parodies
saiyan
proverbial
obnoxiously
testosterone
260
220
9v
binge
cac
dal
dks
dia
gk
hick
omit
paces
£7
##gage
##aire
##lite
##bbly
##mn
##mus
##35
theor
##meat
retelling
reuses
socially
notions
##iller
##illes
##rored
exor
comms
##irls
##imura
tracing
levit
unho
outst
prog
dona
graphix
plumber
lotta
disem
disingen
enjoyably
boi
longshot
slang
defences
shooty
developpers
singer
surgery
disappro
contention
uniques
remapping
excer
freerunning
quickplay
requesting
sheph
immersiveness
copper
textbook
wallhack
barcel
writting
breathless
tonics
lenient
immeas
miniature
lengthen
merry
punt
digits
miscon
premises
commentator
sweating
virtues
shielded
empress
sudoku
ceased
phenomenally
videogaming
branding
propably
wandered
protector
griping
mortars
organisation
giggle
homic
resolves
disgrunt
gw1
holster
stocked
outlaws
hybrids
binds
colonists
independence
rtc
mommy
obscurity
290
subtitle
frigging
craziest
kidnapping
salvation
scorch
melody
belts
sterling
inherited
cruelty
blitzball
shao
laundry
diminishes
mantis
leisurely
1920x1200
java
amplitude
ancestor
viva
reinforces
waggle
##visual
gravel
interchangeable
blemishes
hypocrisy
exacerbated
kasumi
indistinguishable
sidemissions
familiars
condescend
shephard
3h
61
bour
bail
bins
c2
cower
dues
dandy
eo
eigh
gush
jot
ores
tch
tir
viny
wf
##rail
##dain
##tem
##hn
##erence
##rement
##onon
##otent
##lyn
sth
staged
thatgame
forcibly
exiles
neil
allure
theyve
meals
##ereld
storybook
storymode
trunk
lex
buds
uploading
coasters
coarse
overgrown
hears
thane
woulda
crt
impart
disband
interes
intermitt
boiling
safer
##dian
attained
camped
issuing
generously
freeplay
fpses
typed
spew
cleans
regression
repetitively
##trusive
balcon
starvation
dipped
controler
sheppard
waluigi
xbox1
happenings
specialty
devised
screenplay
severed
blackjack
coliseum
histories
baseline
##holes
heartstrings
squat
remode
##overall
emote
fifas
hooking
pennies
misled
hotas
richest
hideouts
lamest
polishes
summing
ivy
spams
latin
platinumed
volat
panther
gtx7
cruiser
rotations
chronicle
vibration
manuals
caveats
magnificently
juke
swordsman
clumsily
hiatus
infuriated
exploitative
steelport
sengoku
sparta
awarding
staggered
poisonous
reccomended
smacked
celebrating
laboratory
crazier
censoring
flanks
##ophobic
chocobos
ddr4
cowboys
tentacles
sustained
contradictions
defective
lyric
alerts
reluctantly
blogspot
hypocritical
##better
scrambling
pioneered
machinarium
replayabilty
##copic
masquerade
##broken
voyage
perplexing
astronomical
dysfunctional
##folk
attentive
lifestyle
xtreme
bizzare
mejor
masterpeice
indoctrination
yadda
sovereign
uplifting
overabundance
innumerable
brethren
impractical
##stealthstealth
unholy
barcelona
4s
cables
cnc
fot
ike
kl
kak
kang
lump
mace
natives
oz
tumb
tina
tumble
yore
zig
##okes
##mouth
##qs
##wa
##lll
rebalance
ontop
sooooooooo
chi
##ulent
##imo
expac
noisy
spices
muito
cove
compels
charity
charcters
quiz
quota
scs
##istine
##about
disorder
disdain
sera
serah
perverted
booming
slated
maya
bigby
psi
obv
shorten
monit
jockey
skillfully
voicework
##uding
infern
evid
##proof
savegames
crapped
hypn
daisy
12th
shadowing
unrest
unreadable
preferring
ds4
simplifying
filtered
ahhh
harp
squadmate
grandmother
specifications
replies
hurried
millisec
gtfo
illidan
unnamed
advertises
processors
sensical
sensors
blurs
falcom
influx
esrb
##aaaaa
nfsu
experimented
17th
piling
panthe
dispose
organised
revenant
punishments
mouthed
disappearance
adaption
plagiar
contrasts
hamster
elevation
swapper
observations
abominations
unpredictability
umpt
rtts
malicious
malfunction
innocents
runescape
governments
smacks
hmmmm
celest
declined
hauntingly
calculations
sackboy
flanked
intimidated
berlin
reversing
insisted
##built
gorilla
##gtx
clarke
buggier
surgeon
##vvvv
persuasion
berseria
yields
allocation
warlord
insurmountable
proclaim
behemoths
prevail
compulsive
sidescrolling
expendable
scandal
pieced
ricoch
insufferable
nominated
prerequis
scumbag
prematurely
appetite
unsuccess
inmersive
choreograph
spheres
stockpile
binoculars
h1z1
rundown
lamborghini
cyrodi
9v9
disgruntled
thatgamecompany
aiding
ci
c3
dank
daugh
eug
feces
hers
nug
sass
vf
vind
wg
за
про
##cod
##tiful
##kiden
##uki
##bolic
##jima
##aning
##aron
##icia
beans
playbook
notifications
##robe
chime
exasper
shaman
alf
mails
tray
leo
lemon
##ainable
expecially
unem
##urous
funnel
cobbled
gover
prepo
heark
ques
##ivated
##ivals
10k
arises
wouldve
seeker
veins
imperials
offspring
agro
backside
##ndered
slant
slums
flinch
decon
repulsive
biggie
comet
modem
campagin
channe
underapp
swore
friendlies
gliches
carriage
gungeon
entails
customising
ideologies
clears
epile
refusal
avar
capit
restores
walmart
submissions
battlest
majima
craps
deviates
skyh
severly
##elf
readable
##anean
diabol
keyword
homeland
doubling
##angel
##dded
breathed
initiated
receivers
rares
fortifications
hurl
questioned
defends
scrapping
rollback
##aturated
selective
facade
sensibilities
bloss
gateway
shoves
mirrored
##ascript
gtx10
fascist
hawx
pitcher
photosh
##oka
canceling
ringing
ganking
flavors
oceanhorn
sociopath
cranking
2600k
flopped
reinvention
eclips
implants
deplorable
thirteen
##agram
barracks
sophistication
neglecting
stoic
notoriously
mineral
mathem
improvise
mesmerized
bankruptcy
gesture
allocated
javascript
printed
untouchable
adversary
crunching
costumers
paladins
scourge
machinery
toukiden
arcadish
vessels
arcania
pending
metallica
quirkiness
welp
celebrated
discontin
ragnarok
mesmerising
invigorating
hierarchy
##argeting
irresponsible
jeremy
schofield
umpteen
cyrodiil
bale
bdo
dcu
hans
lom
nada
pess
tiss
tlc
yog
yikes
##gian
##count
##tling
##foot
##3r
##65
##ре
##aty
tomod
##arus
##ican
rekind
##ionero
##unner
docks
##igible
##iefer
##playing
unmo
unbreak
##essions
spiced
##icho
qui
quot
quarians
fearing
manne
manpower
platter
##ares
##acted
clog
usum
couldve
syl
realisation
strife
defuse
repr
instancing
##ensibly
sidelines
ruff
phelps
plotlines
infused
evap
brevity
relat
relish
imminent
communicated
ohhh
auton
popups
literaly
hackney
heartbroken
squint
speeder
barlog
##eroll
turds
uninformed
blandness
investments
sandy
inventories
puny
dissip
mp5
verify
vermint
accepts
correcting
setsuna
sprays
experince
informations
cornered
nineties
detecting
intending
blindfold
brutalities
esch
proposal
recognised
jackie
icefrog
piled
downgrading
raping
mythological
adaptations
retailer
cancelling
stabs
contacts
pripy
##encia
suprises
venus
multiplied
tilting
adapts
compromising
calculating
ouch
##clubs
doa5
dosnt
interrogating
pedestal
ruling
tempered
sidekicks
patriotic
parachuting
incidentally
enforced
sorceress
lizards
fricken
unsurpass
mitigated
babysit
heavensward
swedish
blasphemy
conference
facilitate
artefact
charachters
overreacting
##withstanding
minibosses
residential
gullible
plastered
unwelcome
mangionero
username
dethron
disingenuous
mannequ
mangionerofl
270
850
ald
bn
bh
cis
fereld
hf
ire
lect
mn
mould
mick
mia
tay
vg
zora
zipper
##iom
##dled
##dream
##makers
##ки
##ко
##x6
##jam
##engers
##ania
stfu
whizz
wh40k
##oose
##rose
sh3
shimm
##iler
trot
uno
unthink
nosed
nobu
cobra
amie
overex
overture
##aully
adverts
10gameplay
plough
bloo
disill
nowdays
##loft
litte
brisk
sa2
stran
sling
warring
minish
##grim
underut
##aways
extream
carth
solitude
visibly
franken
customised
won´t
##scapes
regressed
ep2
couse
infint
invader
relieve
medan
discon
30h
##ruck
futility
gamerscore
##blades
famas
occult
minorities
furry
keyblade
utilities
basicaly
unresolved
lockers
implementations
filed
irked
joyous
shadowed
strategizing
hurdles
verbal
slashers
acceptance
undying
1900
1930
routing
##ooki
urgent
identically
unskilled
##jaja
operatives
blinds
naughtydog
xcom2
omissions
stella
crux
briefing
candles
debug
peacefully
utilization
hookers
deluded
nitrous
penalize
accidents
quantities
mashers
ratios
##eeeee
recreates
constructing
suspected
poisoning
heightened
dwarven
distinguishing
travis
sacked
grove
rookies
tangled
submitting
dispatching
whimper
comrade
aligned
linger
douchebag
sceptic
illustrations
widow
embargo
gpus
undertones
pondering
babysitting
dabbled
multiplatform
barricade
metallic
scumbags
counselors
indirectly
envisioned
definitley
##hunter
prothean
velvet
druid
disproportion
undecided
eighth
tomodachi
unbreakable
hackneyed
vermintide
pripyat
c64
dt
diction
f76
gays
luring
p2
raged
rfactor
taint
u3
vech
zx
##gus
##girl
##caster
##yx
##hen
##mail
##37
##69
toca
##isse
##anly
##leg
anew
notwithstanding
##thal
exs
exos
fris
shoud
##irus
aluc
cong
conned
##igated
##igrad
haste
spon
spun
spying
##sold
muh
proff
amater
immoral
scoped
feather
clas
cloning
seats
##erian
implying
interwo
pristine
missle
bobble
differentiation
flack
flicks
##olas
guise
useable
halves
##awa
smug
monies
monarch
musicians
glut
bossfight
##formation
turnbased
lineback
metals
coolness
regress
begged
raced
destin
fallout4
companys
pokeballs
passenger
deepness
colomb
transmo
distr
median
concert
costed
painter
equates
imagin
complexities
logistics
ubisofts
dsi
counterattack
joypad
##guish
outstandingly
19th
1970
1979
awkwardness
safehouse
earthqu
thorn
guildwars
distracts
haircuts
1700
integrating
gtx6
tickle
tlj
delves
royally
ensured
kraken
scanned
irrever
bouncy
tolerant
trolled
graceful
overhauls
trekking
32gb
bg1
vertigo
quarterback
slept
procedure
##charge
fleshes
adapter
doctors
overdose
obliged
rumor
intimidate
recharging
polarized
ns2
foolishly
novigrad
ragdolls
melted
concluding
dissappointing
speedrunning
overtly
fractals
indulgent
kz3
canyons
pigeons
satellites
barricades
competitiveness
eavesdropping
grievances
sunsets
achievments
maddens
submerged
coherence
shudder
orphan
freeroam
skydiving
redundancy
fresher
inadvertently
daughters
underappreciated
interwoven
aun
cie
fug
fenix
g4
gating
hte
jax
pounce
riven
vene
vener
vvvvv
w2
wading
yan
zom
£4
##a1
##nk
##kets
##oi
##bars
##job
thay
tore
##started
soar
async
##chair
##illions
##ilah
##ereal
tractor
export
hasty
willy
prol
charcter
overthr
betrays
##actively
looph
clint
severs
ender
systematically
sails
dr3
neversoft
acu
takeover
halft
##rawn
##yson
engulf
incred
heral
holl
freighters
animators
##ocked
requiem
heller
30min
skyrock
oppression
encumber
treacher
nintendogs
doubly
##holder
50€
landings
aching
memorized
da3
breakneck
viewtiful
bethesdas
eyec
utag
optimism
##dding
silhou
streamer
upsides
banking
regrettably
shielding
rams
eyeballs
metroids
timings
tearaway
savi
synonymous
deniz
diversify
proposition
dispite
rooting
organizing
townsfolk
delilah
liberated
pitfall
junior
propagand
pitches
understated
fulfil
ancients
ishimura
leveld
spyware
##spective
noobt
cybern
chiefs
configured
##icians
fabric
msaa
vulnerability
settles
stylistically
mh4u
exchanged
convincingly
enchantments
capsule
decorating
dictators
overstated
nauseous
optimalization
inconveniences
##buy
##bucks
cynic
choises
admiral
resonance
lilith
breaching
cartridges
##fuly
undiscovered
mvc
incompat
enforcer
melodrama
sirens
aptly
yahoo
subplot
bmw
xenomorphs
smuggler
hobbit
nimble
cannibal
sparingly
jittery
democracy
warchiefs
fountain
intolerable
watercolor
ressources
dissuade
dissonance
stupendous
esoteric
hypnotic
celestial
preposter
evapor
eschew
disillusion
alucard
amaterasu
1k
280
3rds
5gb
a2
bair
cud
caches
daud
fon
fused
hing
jut
kass
lops
lcd
msp
ncr
taps
vlr
woth
это
##aing
##во
##39
##isis
##angs
##uty
beers
##alan
hale
##lding
molt
withing
withit
anemic
##thon
chats
chipt
##irling
allright
orct
alters
weir
##imeter
deku
tricking
abd
unear
unanim
coated
compression
prese
charizard
10€
plaza
##usa
pell
##cky
sayin
##anship
missles
knowingly
robs
worths
sincer
reporter
##pole
nothingness
attire
rightful
appal
swath
hugh
hugo
emulating
##ysics
carc
carl
caracter
cuteness
puzzlers
excused
excrement
##scrib
meanings
indis
##arness
darkzone
capping
helplessly
controling
meditation
plank
wrongly
fairies
30gb
bugfixes
snapped
wayside
squarely
##uga
imaginations
foresight
40fps
ff10
frontlines
ambul
verity
illusions
eyesore
responsibilities
rebounds
fiber
sensations
64bit
spirited
frogs
devils
mutch
cdp
stressing
namesake
shrinking
golfers
stamps
revengeance
chilled
trappings
ambientation
defensively
assumptions
colonize
cranky
settargeting
venues
leonardo
colleagues
obscured
skateboard
ooze
safari
wares
sexualized
squeezing
hayter
wires
weighing
conservation
whiney
##caust
feral
lmgs
administr
neptune
gaben
displeased
fanfare
churned
grahics
gargoy
##00000000000000000000000000000000
cdproject
tweeks
powder
empowering
cigare
realease
fossils
globally
deathclaw
jutsu
spreadsheet
slavic
tigers
demigod
gamebryo
sharpshooter
octopus
vortex
pantheon
unthinkable
treacherous
orctown
650
bart
cited
ehh
gouge
g27
lut
nume
nests
oliver
sg
tand
uhh
vines
##afer
##clo
##ciously
##pent
##fed
##erk
##atr
##atown
##escap
##orp
##oral
##itan
##sta
stoo
##alings
##illo
##rolled
choking
shave
shipp
likeli
##opher
mement
mypark
abe
abl
outcry
cozy
amzing
pref
becuse
heath
arctic
bystand
plop
firs
clashing
clinging
aways
teasers
agr
prides
missable
completeness
easiness
incin
recore
strag
##osity
warhawk
bitten
##asha
##grot
surplus
excepting
boringly
smac
sm64
fullbright
carpet
gunship
rematch
assim
payments
etw
##prom
enterprise
redirect
discom
##who
30€
despawn
header
snot
prompting
##alem
treas
diablo2
schafer
survivalist
##thesda
mediocore
infinit
hidet
arkfalls
norway
intrins
constantin
shadowkeep
strategist
banners
audiovisual
punisher
trustworthy
networks
tanker
salary
fighterz
statistical
rammed
attaching
spammy
horsepower
intuitively
arguable
mutilated
diversions
psychologically
recognisable
nazism
survivability
riddance
dispute
dispens
fingert
gloriously
revolt
fascination
horrified
transporting
applicable
applications
poorest
wanderer
recalls
drafted
overshadows
inaccuracies
harmful
darwin
decaying
inherit
##seeing
retrying
reversals
synching
nickle
##nnnn
holocaust
swayed
interceptor
incapac
assorted
avaliable
##768
##ennifer
revamping
eldar
elitists
unscripted
prostit
##writer
mascots
depletes
convoys
telegraphed
##dddddddd
crappiest
incessantly
motorbikes
keybinds
chinatown
##11111111111111111111111111111111
beetle
squirrel
charachter
pertaining
predominantly
lemme
##hello
golem
disinterested
accusations
instakill
altho
cocaine
harpoon
hogwarts
lobotom
##dimension
audiosurf
rtcw
photoshop
sponsored
lopsided
orctowngrot
bk
cv
cim
cite
cetera
gane
gma
hbo
hank
jk
rall
rants
tart
vouch
##aque
##rot
##iing
##tag
##ит
andr
toting
##anor
##asive
reocc
##etical
##thod
asides
comfy
sht
doe
alluring
ork
##amar
##ivel
##iveable
##oodoo
grizz
trun
abroad
unified
spiel
muzzle
amu
charak
charaters
arwing
##intuitive
gameplaywise
cron
doesent
blunders
##abble
thrives
##azed
##loat
##lode
multic
##quently
##oscopic
slander
differentiates
minors
##beard
swoo
verses
genera
##berb
##zzz
hodge
puzzels
exclam
##uden
biological
deadspace
relatives
negated
leftist
deval
##rup
divider
dutys
locating
15fps
presently
promin
magma
averages
forwarding
##blind
auss
50th
hypers
potentials
heavies
equality
barter
touchdown
proteus
40€
idols
##grounds
favourable
apartments
layup
harms
shadowy
hdmi
misog
danny
bodyguard
identifying
cleverness
arching
celt
sleepy
vanishes
relaxation
akuma
romancing
wardrobe
proposed
propelled
killer7
threatens
ss2
bumpy
crisper
lasso
palms
xenonauts
fascism
reputable
golfing
investigative
encouragement
cowards
destructoid
belonging
assisting
employing
reliability
proceedings
contrasting
hampers
khan
funnily
mcgee
manipulative
priests
necks
gaia
hyperdimension
galleries
bellic
breezed
superficially
multipliers
sparkling
exhaustion
reinvents
poeple
sparsely
distinguished
whistling
aggravation
sliver
ia´
stashes
splendor
catacombs
persisted
nickname
clusterf
examined
establishes
choir
distinguishable
descending
massacred
dystopia
warzones
exhibit
gramm
gnasher
downvoting
980ti
fending
arrangement
vapor
commodity
interference
embodies
newspapers
dwindling
##ffffffff
figurines
enviorn
kyd
trimmed
stitched
discrimination
defintely
aspirations
plummet
blonde
wallpaper
lewis
cylind
unplug
unfathomable
insecure
intermediate
believability
bourne
diabolical
strangest
vvvvvv
carcass
likelihood
4h
6000
cess
famed
gaur
kling
lind
luna
ming
mgr
nw
nich
rims
sount
tg
wery
##gic
##giving
##saw
##nik
##uke
##bol
##fd
##zones
##inky
toast
towel
##enetr
isp
##lex
##league
##sting
##stant
##sthe
hab
##apons
##estors
shon
oras
##igs
deux
lease
leech
buss
unecessary
noses
outper
spar
spru
##uru
anyday
goll
goats
overdo
img
afloat
blister
impos
disarming
aftert
permitted
sakes
skaters
skype
slag
slams
war3
warren
flirt
resign
acom
reposition
##quel
underp
smiles
##oola
jolly
teamates
fob
##rafting
increment
probable
detach
hoc
unfitting
francise
scenary
purge
retcons
woes
##phobia
hells
bugbear
battleships
gunsmith
firefall
parade
popcap
##bler
##retion
walled
yells
blooded
ignite
momentarily
40h
suffoc
fluke
forgo
craftsm
earnest
narratively
publication
kickstarted
harbing
merges
alienware
agreeing
mistery
111
ugliness
fellows
statistic
sunrise
bottomline
luci
borde
representations
retroactively
blowingly
irritates
stealthing
psychosis
villainous
populations
salesman
cruisers
debated
utilised
buffer
shrie
mashy
oversights
jeal
transformer
sharply
borefest
ventured
privateer
taboola
fabr
havok
shelved
yonder
kitty
butchering
cockpits
axiom
9800
##notch
inflation
kaos
alleys
unexplainable
reinforcement
litteraly
swallowed
bullshit
width
vinci
grinning
unnotice
owlboy
alleviated
replayablity
inovation
mecanics
culminating
chugging
crappier
worsened
acheive
dfm
encompasses
supercars
caricatures
prometheans
##5555555555555555
sloppily
n00b
millennium
suther
monochrom
deceitful
snowflakes
theatrical
adjectives
adjacent
sewage
condescending
infernal
nobuo
colombia
cybernetic
constantinople
##thodox
craftsmanship
5ghz
aom
bough
bern
hust
lfr
mint
mice
ood
oasis
sage
sry
von
vod
vince
voodoo
wm
##gp
##boo
##bath
##bang
##have
##west
##wings
##x4
##mech
##aten
tome
reverted
stamped
##alo
##ecr
##illity
exac
shawn
shook
shaken
mah
mei
memo
mellow
trish
abr
upt
ungr
cogn
amps
amber
charmed
##auge
actaully
argh
plowing
clau
crass
##ishment
taunting
impede
dissol
thinly
brili
##ooter
whereabouts
boars
drak
recourse
tw1
defunct
deco
trys
20hrs
acb
soundscape
killings
gambits
##olan
singel
classed
smth
mono
recommand
recommends
gliders
freeform
skillt
complicate
racists
changeable
matchups
gibs
breeds
redis
passengers
advocate
interactable
firestorm
dunes
objection
objectivity
mediums
##blins
shamefully
pathway
augs
exploratory
furiously
viewers
airstri
doubted
apes
humanoids
logan
doomguy
sawed
iracing
irres
parked
ducks
minimized
nuka
cornering
creeped
640
kojim
queuing
borgia
moonl
romans
occurrences
bumpers
stormy
unforgivably
briefings
##1011
pitt
zodi
shrunk
##yrus
incorporation
hike
emerges
gracefully
somnium
regenerative
mordin
pedals
virgil
blanket
picturesque
maligned
chainsaws
electronics
confirms
unimaginable
monetize
declaring
densely
decorated
dimps
fidget
deployment
##ophobia
alexander
overstays
straying
molded
berries
coordinating
scissor
handicaps
manufacture
bugginess
8800
tyrann
olympics
embarass
painkillers
lesbians
dissatisfaction
1946
organs
cqb
attainable
drafting
inflicted
##hhhhhhhhhhhhhhhh
uc4
hijacking
##ssssssssssssssss
warthunder
conferences
spurts
swbf2
topple
orgasmic
repititive
muffled
bollocks
ferocious
cfm
freebie
doctrine
unfixed
tombraider
hooray
alchemist
tumblr
dcuo
unsurpassed
frankenstein
venerable
eyecandy
baird
hidetaka
fingertips
irresist
bau
cin
cks
fis
h3
hump
kay
kim
kain
lr
oath
ply
poof
rows
rote
sms
wook
##rath
##ike
##df
##dark
##cour
##uers
##де
##fan
##xed
##x768
##ус
thw
##itations
##arounds
inescap
onl
stinking
soild
chor
##esta
exager
frans
##iri
aloud
enigma
##amic
maiden
suv
deed
graced
abort
upward
upkeep
unam
spaz
##andel
quoted
##ivia
scot
manure
loos
crits
##tley
desks
hades
teases
teething
pert
pervas
thinner
sytem
buyed
missons
genetically
hardpoint
easly
rofl
flail
flurry
decad
##dily
originated
##boat
underhanded
apper
musically
muslim
puss
glac
turnoff
##web
specter
anima
registers
##arned
infancy
breast
sheets
subdu
##ocr
deviant
100k
entertains
151
soulsilver
tactile
encore
skillset
cryo
greg
landm
ignis
madrid
accessable
depended
ff6
forgiveness
viability
dogmeat
grandpa
##guff
11th
nuked
99€
sixteen
tasteful
truths
##2013
cultists
gerald
ocass
lvling
labels
jacking
csi
##ylon
murderers
##seye
populace
subjectively
guidelines
palate
depressingly
bondi
spreads
jericho
stereoscopic
megaton
hamf
ventures
fishy
inspirational
fortnight
volumetric
absorbs
dow2
marching
traveller
wingman
gutter
settler
sleuth
jesper
ttg
behaviours
jaal
grafix
eclip
infiltrator
cliffhangers
athlon
partnership
symbolic
ravenholm
boasted
jewelry
ctos
ctds
elegance
manufacturing
choise
##100001111
lurk
mantra
metaphors
flamethrowers
loner
lonnie
cheesiness
##speed
ridicolous
dwellers
monstrosities
fh3
pyramids
wiggle
liveries
ajay
##sofob
##kkkkkkkk
480p
punctuated
flamers
managment
otherworldly
pelts
meditative
drivatar
outclassed
uzi
rerelease
koopalings
enimies
coincidentally
predesestors
lomac
denizens
sutherland
1c
5hrs
8x
bac
caved
dye
fict
fumbling
fumbles
gaw
jing
kaw
oooo
pst
s1
t3
wail
zor
ıs
##gum
##rush
##rums
##tail
##wen
##foe
##се
##esda
##anc
##stairs
stag
nothin
##ceived
frills
comun
allen
alist
alma
##amine
mais
##antes
grates
timelines
unmit
mull
coss
compart
overjoyed
##ande
actuall
1010
##integr
mann
wayyy
awed
permit
##achia
throughly
yearn
dr2
eases
strum
skil
##osly
flab
defl
resides
shootings
##pod
develope
undergo
smother
improper
pcars
sideline
accross
probaly
suppressed
topnotch
chewing
inclusions
wrongs
passively
haven´t
fairer
randomised
lighten
battlefronts
heroines
headstart
looters
##inson
concessions
dealbreaker
garages
achilles
stunted
skyrims
bfme
groundwork
##ellar
forew
apenas
humanly
turmo
microphones
magician
themepark
competence
accounting
appreciable
clickfest
salem
harves
harbour
interns
grandp
##brush
hurric
bandage
familiarize
machinegun
riches
intrigues
sensing
operated
succed
falter
trickier
youngsters
mirage
cellphone
googled
mk8
hallmarks
scams
pitting
radioactive
translator
mansions
kotaku
motherbase
vaulting
sfiv
exploiters
karate
traversed
grasped
##atti
wingmen
rtss
scraping
slogging
remixing
reserves
i´d
boldly
retract
monetized
jaggy
plugging
adopting
wealthy
collapses
porno
accumulating
insistence
confrontations
mistakenly
avenge
aspiring
aquire
masochists
whispers
blacksmithing
pipboy
carrots
damper
upscale
papyrus
##oooooooooooooooooooooooooooooooo
overlays
kamik
vida
whoops
unintentional
##llllllllllllllll
livery
sporadically
oooh
boulders
skellige
austin
misinformation
deactivate
bicycle
prosper
livest
awesom
##150150
glyphs
hydra
reincarnation
molyne
dwelling
battalion
battlestar
pessim
extreamly
heralded
weirder
indisput
tandem
shippuden
##enetrable
harbinger
eclipse
unmitigated
460
aus
bie
dich
eador
ich
jpg
kos
kdr
kcd
lounge
nr
nite
nds
ode
vil
wick
wimp
yama
£1
£6
##cence
##camp
##kick
##low
##hetics
##m2
##fests
##97
##142
##46
##32
##junk
thurs
theese
##metric
##atories
##ester
##enote
##encial
##animate
bees
begr
stoned
##lays
sob
soil
##etto
playboy
chasm
chugs
shiv
shang
dove
alolan
mai
weild
##ection
buu
noel
spas
spacing
muse
overally
adn
1050
bested
wayyyyy
usualy
badits
badder
interven
##locking
backround
brass
longs
warmed
roch
flicking
appare
##athed
founding
paypal
coden
epically
refs
refuel
totori
solidified
chell
brew
diy
environs
suburb
##manage
hellgate
discretion
##comm
lateral
transm
hypnot
occured
painless
bloodbourne
dafoe
freshen
computing
graphicly
dulled
accountable
harmed
##otransactions
cartman
millen
190
16th
softworks
centred
tanooki
summit
contrapt
professionalism
instantaneously
mira
pilgrim
baggage
chops
unacceptably
peacewalker
liberties
##filled
translating
fuc
replacements
belonged
rampaging
bounced
infuriate
grimy
trapper
percentages
##resting
dialoge
tactician
ethos
benches
disturbingly
sidenote
ttd
vaan
valleys
offends
frigates
declining
therap
claustrophobia
lavish
rewinding
hospitals
playgrounds
tango
##ettel
1985
atlantic
hookshot
kissing
synths
beacause
invulnerability
alcoholic
confronting
algorithms
spacecraft
origami
dabble
lickers
pepper
teeming
overflow
reinforced
charecter
staircase
retirement
masturb
pummeled
marauders
hoi3
tdu2
hydrophobia
roxas
♥♥♥♥♥♥♥
wrinkles
crayon
extravag
deposit
dessert
amalgamation
atlantis
discredit
balcony
evidenced
unnoticeable
oodles
pervasive
flabberg
8s
iga
kaid
nast
niss
niece
p1
peep
sis
sip
tastic
tundra
uld
ueda
vhs
wut
то
##nion
##upt
##ucks
##bug
##hat
##mil
##mable
##ся
theaters
##orns
##llost
toaster
gamedesign
incend
##icent
rebalancing
oni
whipping
forrest
##seed
mocks
anguish
liu
exel
fridge
cane
doen
doens
ats
suxx
##iging
mend
##gender
gettin
grun
trow
aber
levers
leaked
lospo
uphold
expi
exposes
outlet
overplayed
hexes
argent
crist
blad
desol
hadnt
badger
throu
impenetrable
backyard
partying
genere
##spec
combating
stringing
skates
##osmith
flung
flinging
acess
studies
seth
insted
##xton
##tainable
surve
appart
extortion
musket
##iendo
monaco
definate
teamspeak
gunpoint
acclim
elix
probly
reggie
complications
coud
evar
trucking
starforce
starhawk
complainers
damm
platt
collectively
insights
insurance
battler
leftover
cora
constitute
lightening
bugatti
potty
snaps
lootable
15€
presentations
crafter
colum
treading
paraph
##plant
pathos
casinos
50fps
50gb
marmite
diablos
postap
existance
allowance
particulary
dried
lockdown
emptied
botters
robes
grandmaster
demi
##guys
dedede
slashed
rollers
selects
tweet
dotp
grenad
hostility
fearful
socialize
cosmos
climbable
voila
recognizing
badasses
rubbing
gtx5
disposition
cooperating
giggling
revolvers
revolutions
fascists
pitchford
oversaturated
##flip
couples
afforded
uncomp
fondness
stalkers
##123
congratulated
palettes
londo
4770k
scraped
accelerated
vacant
markedly
bf2142
reservation
chucked
racket
ducktales
a£10
otaku
interpreted
lending
entitlement
contradicting
composers
pipeline
##writing
recharges
##two
1989
dispatched
admiration
transparen
buggies
korra
mishaps
disoriented
butterflies
compulsion
reimagined
especial
##writers
tantrum
contemplate
bribes
stalls
##volent
reju
restaurants
origional
stratag
shmups
honeymoon
reproduce
culminates
homosexuality
whirlwind
wd2
##eeeeeeeeeeeeeeeeeeeeeeeeeeeeeeee
shatters
unicorn
scalable
irksome
ue3
gtx970
gameply
rejoin
ordinance
baddest
seizure
muscular
glaive
impartial
dictionary
halftime
leveldesign
disillusioned
appalachia
amulet
moonlighter
yamaoka
##llostv
lospollostv
670
ave
aod
b3
eos
egs
epo
fcking
fett
g2
hou
honda
harness
klon
laud
marios
mowed
naff
pomp
rn
rice
raved
tum
ttt
vga
wile
x8
##rp
##ril
##kirts
##lane
##yards
##witch
##meal
##itory
itens
ingr
reich
rewritten
##omon
forking
playab
ana
ank
##there
##thinking
##thirst
asynchron
##uno
nev
fried
frik
##opulated
eververse
grader
goodwill
expires
spire
progen
proclubs
anywho
##ivan
scans
scorn
manners
clun
clinch
blip
disintegr
##izingly
perc
##tely
downing
shoulda
hardships
boba
boko
farpoint
incase
differents
fla
moneygrab
extensions
huuu
##getically
##liana
jojo
foster
emulates
emersion
gunna
featureless
commute
cutouts
entre
annually
hoenn
unfin
thoughtfully
epona
racoon
chel
cheery
reds
##ceptive
lax
waltz
battled
communism
crapcom
skybox
15h
provoke
booo
##nera
##intended
awfulness
conco
marth
##mbps
bloodthirst
narrating
madly
forehead
thanksgiving
counterintuitive
emptying
botting
villa
iris
solos
suposed
immediatly
userscore
hottest
apoco
ivs
tablets
savor
savvy
knockback
civilized
sexually
haircut
expresses
##aaaaaa
iceborne
protects
boundary
termina
da2the
358
ensues
fireflies
depressive
europeans
motherf
deceased
deceptic
##casting
uncomprom
pooch
necrod
clouded
tabbing
capitalist
wreckage
ts4
validate
preston
slogan
exchanges
kitten
distribut
tilted
reckoned
warehouses
frigate
dosn
husks
adamant
deducting
temptation
niggle
blops2
goro
novices
tyran
mishmash
shuffling
intertwine
atoms
spinoffs
1404
subscribed
annihilated
pollution
overheat
melding
skimpy
interstellar
revitalize
molotovs
##iscuit
##ropomorph
barker
encompassing
aerosmith
fanboi
regroup
512mb
mothership
haphazardly
orgasm
preconceptions
fossil
bewildering
amaizing
constitutes
elses
carpenter
klei
pickpocket
grittier
unfavorable
sidestep
kahn
heinous
intersection
noodle
enamored
eyebrows
cayde
galactica
choreographed
yoga
underutilized
dictatorship
preposterous
numenera
grammatical
vodka
airstrikes
hamfisted
turmoil
transparency
3ghz
bick
dic
daw
dashed
fult
fib
fxx
ked
latch
mou
oled
pda
raters
svr
uef
xbo
так
##ride
##iu
##nity
##lad
##press
##pah
##his
##has
##hops
##hounds
##found
##zers
##36
##jes
##review
##anos
inning
##stan
beater
retake
onset
stocking
whipped
##acc
mosh
allmost
conund
weop
weaves
sua
##opp
dell
##ilous
##imilar
grids
gruff
tripped
abol
abund
##aints
uplink
unintended
funs
overtaking
##ousing
##ppy
howling
ars
contested
manning
##aret
clover
diseng
additive
downwards
completley
##quist
flir
goto
reside
2048
##pog
stup
steins
##akin
undergone
##awing
swer
swamped
muskets
consent
smir
secured
handbra
remapped
kinderg
lessened
assert
hokey
artworks
standouts
custim
cod5
animating
hitter
honors
stoped
mindful
racetr
##shi
dialed
divert
immunity
camelot
skyhold
skyloft
##kyou
wallrun
yeh
activisions
cheapness
barred
forgetful
proton
dumbs
bullying
airships
generational
##iana
reminders
simplifies
harming
iran
dreamy
dreamland
fortified
duper
minutemen
penult
veritable
nub
##lubs
oddball
torgue
prediction
flashier
automation
hillarious
quitters
advantageous
tourist
cemented
dramas
propose
hairy
ruleset
booth
goood
##hea
deliciously
christopher
##streak
retailers
derp
infectious
wields
outskirts
swears
rdr1
exaggerate
terminators
overhype
grasping
staffs
sabre
msg
yoda
gallop
ethereal
unorthodox
broaden
cripples
moms
escapist
##fighting
lighthouse
demonstrating
ditches
uppercut
deploying
whacking
measuring
lunge
wannab
clustered
improvments
pyre
python
inkling
lockpick
pike
dissappointment
geograph
p4g
##arence
farting
illustrate
disciplines
reperto
jogging
papo
peripherals
proxy
mewtwo
blighttown
keybindings
deduce
deteriorate
raptors
anchorage
n00bs
cyanide
ribbon
superlative
animatronics
omnipresent
shangh
dreadnought
ets2
descriptive
bryan
unbelieveable
unemploy
skyhook
ferelden
taylor
irreverent
infinitum
exclamation
cylinders
briliant
zodiac
alistair
3am
bou
bops
cack
d4
dpad
heter
ian
l3
omen
pn
pkm
sould
tapped
vp
wuss
£8
£45
##eed
##gical
##nite
##tens
##pic
##pie
##proc
##uh
##million
##were
##fp
##fus
##21
##87
##ры
##ле
thy
thieving
##atra
gamest
gamestyle
##isa
##aned
##anic
inb
##utter
##acers
molasses
angers
notic
lily
##unes
##unte
##usting
friv
fringe
shores
##opard
##igence
myleague
traces
hashed
spank
##urate
coke
coco
charter
##andal
quo
arst
bett
plumme
opaque
veer
blush
awry
##rip
impresive
disables
genie
baton
skits
longed
2025
##ffer
instill
stewart
##bodies
underleveled
##ensit
putrid
mechanized
swell
titov
##berries
ela
probs
artes
##airi
depot
##scopic
complacent
incredibles
indi
beggin
seemless
truest
souless
pasts
progressions
wobbly
meds
restock
restoration
citys
deepen
fireplace
##ahim
oneself
transmit
boooo
rockband
bargin
##odo
clearance
bullseye
airstrike
api
talkin
antith
witcher3
tenner
footstep
destroyable
micropay
borderless
pushover
bleeds
accomod
warcraft3
##iments
scroun
trailing
1986
conversing
judges
americas
14th
1400
wana
fiance
masuda
##metry
vanille
##ubus
fatig
afflict
revei
romanced
instantaneous
thumbn
recognizes
chopp
merciful
organizations
candies
debuted
buffy
homages
newerth
grapichs
cloths
cringing
disneyland
derpy
deranged
letdowns
hiro
ostensibly
anthropomorph
gannon
contacting
somtimes
supplying
recovers
gaq
interruption
##icheat
observant
obsessively
tomah
bends
accelerator
calibrated
dreading
##130
##ulsion
retrieving
enrage
strolling
scumming
calculator
insightful
sacks
dangling
consolid
sprawl
outdoes
schedules
nauseam
holographic
preceded
1987
bastardized
aggregate
fantasic
pagies
vegeta
diseases
synthetics
bulb
ddos
jonah
monopol
obscenely
6700k
shafts
perpetually
interferes
reproduced
killcams
##2222
figuratively
enviorments
playtested
override
detonate
##battle
lumbering
overseas
blemish
zapper
crocod
plataform
culling
1950s
distasteful
[...]
